{
  "version": "1.0",
  "truncation": null,
  "padding": null,
  "added_tokens": [
    {
      "id": 0,
      "content": "<pad>",
      "single_word": false,
      "lstrip": false,
      "rstrip": false,
      "normalized": false,
      "special": true
    },
    {
      "id": 1,
      "content": "<unk>",
      "single_word": false,
      "lstrip": false,
      "rstrip": false,
      "normalized": false,
      "special": true
    },
    {
      "id": 2,
      "content": "<s>",
      "single_word": false,
      "lstrip": false,
      "rstrip": false,
      "normalized": false,
      "special": true
    },
    {
      "id": 3,
      "content": "</s>",
      "single_word": false,
      "lstrip": false,
      "rstrip": false,
      "normalized": false,
      "special": true
    }
  ],
  "normalizer": {
    "type": "Sequence",
    "normalizers": [
      {
        "type": "NFKC"
      }
    ]
  },
  "pre_tokenizer": {
    "type": "ByteLevel",
    "add_prefix_space": false,
    "trim_offsets": true,
    "use_regex": true
  },
  "post_processor": null,
  "decoder": {
    "type": "ByteLevel",
    "add_prefix_space": true,
    "trim_offsets": true,
    "use_regex": true
  },
  "model": {
    "type": "BPE",
    "dropout": null,
    "unk_token": null,
    "continuing_subword_prefix": null,
    "end_of_word_suffix": null,
    "fuse_unk": false,
    "byte_fallback": false,
    "ignore_merges": false,
    "vocab": {
      "<pad>": 0,
      "<unk>": 1,
      "<s>": 2,
      "</s>": 3,
      "!": 4,
      "\"": 5,
      "#": 6,
      "$": 7,
      "%": 8,
      "&": 9,
      "'": 10,
      "(": 11,
      ")": 12,
      "*": 13,
      "+": 14,
      ",": 15,
      "-": 16,
      ".": 17,
      "/": 18,
      "0": 19,
      "1": 20,
      "2": 21,
      "3": 22,
      "4": 23,
      "5": 24,
      "6": 25,
      "7": 26,
      "8": 27,
      "9": 28,
      ":": 29,
      ";": 30,
      "<": 31,
      "=": 32,
      ">": 33,
      "?": 34,
      "@": 35,
      "A": 36,
      "B": 37,
      "C": 38,
      "D": 39,
      "E": 40,
      "F": 41,
      "G": 42,
      "H": 43,
      "I": 44,
      "J": 45,
      "K": 46,
      "L": 47,
      "M": 48,
      "N": 49,
      "O": 50,
      "P": 51,
      "Q": 52,
      "R": 53,
      "S": 54,
      "T": 55,
      "U": 56,
      "V": 57,
      "W": 58,
      "X": 59,
      "Y": 60,
      "Z": 61,
      "[": 62,
      "\\": 63,
      "]": 64,
      "^": 65,
      "_": 66,
      "`": 67,
      "a": 68,
      "b": 69,
      "c": 70,
      "d": 71,
      "e": 72,
      "f": 73,
      "g": 74,
      "h": 75,
      "i": 76,
      "j": 77,
      "k": 78,
      "l": 79,
      "m": 80,
      "n": 81,
      "o": 82,
      "p": 83,
      "q": 84,
      "r": 85,
      "s": 86,
      "t": 87,
      "u": 88,
      "v": 89,
      "w": 90,
      "x": 91,
      "y": 92,
      "z": 93,
      "{": 94,
      "|": 95,
      "}": 96,
      "~": 97,
      "¡": 98,
      "¢": 99,
      "£": 100,
      "¤": 101,
      "¥": 102,
      "¦": 103,
      "§": 104,
      "¨": 105,
      "©": 106,
      "ª": 107,
      "«": 108,
      "¬": 109,
      "®": 110,
      "¯": 111,
      "°": 112,
      "±": 113,
      "²": 114,
      "³": 115,
      "´": 116,
      "µ": 117,
      "¶": 118,
      "·": 119,
      "¸": 120,
      "¹": 121,
      "º": 122,
      "»": 123,
      "¼": 124,
      "½": 125,
      "¾": 126,
      "¿": 127,
      "Â": 128,
      "Ã": 129,
      "Ä": 130,
      "Å": 131,
      "Æ": 132,
      "Ë": 133,
      "Ì": 134,
      "Î": 135,
      "Ð": 136,
      "Ñ": 137,
      "Ø": 138,
      "Ù": 139,
      "Û": 140,
      "á": 141,
      "â": 142,
      "ã": 143,
      "ê": 144,
      "ë": 145,
      "ì": 146,
      "í": 147,
      "ï": 148,
      "ð": 149,
      "ĉ": 150,
      "Ċ": 151,
      "Ġ": 152,
      "Ģ": 153,
      "ģ": 154,
      "Ĥ": 155,
      "ĥ": 156,
      "Ħ": 157,
      "ħ": 158,
      "Ĩ": 159,
      "ĩ": 160,
      "Ī": 161,
      "ī": 162,
      "Ĭ": 163,
      "ĭ": 164,
      "Į": 165,
      "į": 166,
      "İ": 167,
      "ı": 168,
      "Ĳ": 169,
      "ĳ": 170,
      "Ĵ": 171,
      "ĵ": 172,
      "Ķ": 173,
      "ķ": 174,
      "ĸ": 175,
      "Ĺ": 176,
      "ĺ": 177,
      "Ļ": 178,
      "ļ": 179,
      "Ľ": 180,
      "ľ": 181,
      "Ŀ": 182,
      "ŀ": 183,
      "Ł": 184,
      "ł": 185,
      "Ń": 186,
      "ĉĉ": 187,
      "--": 188,
      "ĠĠ": 189,
      "en": 190,
      "Ġ=": 191,
      "er": 192,
      "on": 193,
      "Ċĉĉ": 194,
      "al": 195,
      "Ġt": 196,
      "in": 197,
      "----": 198,
      "ar": 199,
      "an": 200,
      "or": 201,
      "at": 202,
      "ĠĠĠĠ": 203,
      "ct": 204,
      "Ċĉ": 205,
      "se": 206,
      "un": 207,
      "le": 208,
      "Ġth": 209,
      "lo": 210,
      "re": 211,
      "ion": 212,
      "st": 213,
      "end": 214,
      "am": 215,
      "it": 216,
      "cal": 217,
      "--------": 218,
      "ent": 219,
      "local": 220,
      "if": 221,
      "ame": 222,
      "ce": 223,
      "Ċĉĉĉĉ": 224,
      "il": 225,
      "ne": 226,
      "ue": 227,
      "ing": 228,
      "ed": 229,
      "ro": 230,
      "ĠĠĠĠĠĠĠĠ": 231,
      "Ġf": 232,
      "la": 233,
      "Ġthen": 234,
      "Ġc": 235,
      "ction": 236,
      "ut": 237,
      "de": 238,
      "is": 239,
      "um": 240,
      "et": 241,
      "()": 242,
      "Ġ0": 243,
      "ri": 244,
      "Ċĉĉĉ": 245,
      "and": 246,
      "Par": 247,
      "ol": 248,
      "Ġp": 249,
      "el": 250,
      "ur": 251,
      "ck": 252,
      "Ch": 253,
      "Ġs": 254,
      "ot": 255,
      "ab": 256,
      "lay": 257,
      "im": 258,
      "unction": 259,
      "ch": 260,
      "ĉĉĉĉ": 261,
      "In": 262,
      "----------------": 263,
      "new": 264,
      "Ġthe": 265,
      "==": 266,
      "St": 267,
      "Ġ\"": 268,
      "ig": 269,
      "Ġm": 270,
      "ĠC": 271,
      "Ġw": 272,
      "Ġn": 273,
      "id": 274,
      "able": 275,
      "ve": 276,
      "ra": 277,
      "(\"": 278,
      "Ġin": 279,
      "pe": 280,
      "Ġ1": 281,
      "pt": 282,
      "alue": 283,
      "ate": 284,
      "Parent": 285,
      "Ġand": 286,
      "\")": 287,
      "une": 288,
      "Ġd": 289,
      "Ġ-": 290,
      "ge": 291,
      "Tune": 292,
      "Mo": 293,
      "Ġ(": 294,
      "ect": 295,
      "layer": 296,
      "rame": 297,
      "om": 298,
      "Re": 299,
      "li": 300,
      "//": 301,
      "En": 302,
      "Ġb": 303,
      "Ġ==": 304,
      "Ġa": 305,
      "ĠĠĠĠĠĠĠĠĠĠĠĠĠĠĠĠ": 306,
      "ht": 307,
      "ĠT": 308,
      "ĊĊ": 309,
      "Ġto": 310,
      "ss": 311,
      "ild": 312,
      "erv": 313,
      "Frame": 314,
      "cri": 315,
      "cript": 316,
      "ad": 317,
      "ĠS": 318,
      "Name": 319,
      "An": 320,
      "urn": 321,
      "Ġre": 322,
      "lf": 323,
      "ath": 324,
      "os": 325,
      "self": 326,
      "ul": 327,
      "00": 328,
      "Value": 329,
      "ke": 330,
      "function": 331,
      "rue": 332,
      "Ġo": 333,
      "oun": 334,
      "ight": 335,
      "Ġ{": 336,
      "ir": 337,
      "Con": 338,
      "Ġv": 339,
      "put": 340,
      "turn": 341,
      "Ma": 342,
      "ata": 343,
      "Ġ_": 344,
      "Ġtrue": 345,
      "sp": 346,
      "Ġh": 347,
      "Child": 348,
      "alse": 349,
      "De": 350,
      "uman": 351,
      "ĠĠĠ": 352,
      "ser": 353,
      "con": 354,
      "Ġor": 355,
      "else": 356,
      "Ġg": 357,
      "ice": 358,
      "int": 359,
      "ĠL": 360,
      "oid": 361,
      "ance": 362,
      "Get": 363,
      "umanoid": 364,
      "Ġfalse": 365,
      "Player": 366,
      "Ċĉĉĉĉĉ": 367,
      "he": 368,
      "ervice": 369,
      "ait": 370,
      "Part": 371,
      "ire": 372,
      "ex": 373,
      "iz": 374,
      "set": 375,
      "ow": 376,
      "Ġ--": 377,
      "age": 378,
      "ind": 379,
      "bj": 380,
      "ĠR": 381,
      "arg": 382,
      "To": 383,
      "ation": 384,
      "as": 385,
      "return": 386,
      "for": 387,
      "Ġst": 388,
      "====": 389,
      "Ġis": 390,
      "))": 391,
      "act": 392,
      "stance": 393,
      "em": 394,
      "Data": 395,
      "--------------------------------": 396,
      "ound": 397,
      "osit": 398,
      "Ġfunction": 399,
      "ize": 400,
      "Ċĉĉĉĉĉĉ": 401,
      "Ġdo": 402,
      "nect": 403,
      "ĠA": 404,
      "ran": 405,
      "ĉĉĉĉĉĉĉĉ": 406,
      "olor": 407,
      "--[": 408,
      "ĊĉĊ": 409,
      "ity": 410,
      "ode": 411,
      "Ġnil": 412,
      "For": 413,
      "es": 414,
      "\",": 415,
      "Ġof": 416,
      "Ġch": 417,
      "]]": 418,
      "ĠĠĠĠĠĠĠĠĠĠĠĠĠĠĠĠĠĠĠĠĠĠĠĠĠĠĠĠĠĠĠĠ": 419,
      "peed": 420,
      "Ġnot": 421,
      "Enum": 422,
      "osition": 423,
      "up": 424,
      "ector": 425,
      "Service": 426,
      "use": 427,
      "ype": 428,
      "art": 429,
      "script": 430,
      "rom": 431,
      "ring": 432,
      "),": 433,
      "ast": 434,
      "Lo": 435,
      "ore": 436,
      "Anim": 437,
      "Le": 438,
      "we": 439,
      "acter": 440,
      "aracter": 441,
      "oint": 442,
      "User": 443,
      "ext": 444,
      "Humanoid": 445,
      "du": 446,
      "Vector": 447,
      "__": 448,
      "ic": 449,
      "math": 450,
      "ill": 451,
      "..": 452,
      "ey": 453,
      "CFrame": 454,
      "ta": 455,
      "bject": 456,
      "Se": 457,
      "Key": 458,
      "Ġde": 459,
      "mo": 460,
      "th": 461,
      "cy": 462,
      "Position": 463,
      "ult": 464,
      "Th": 465,
      "one": 466,
      "Input": 467,
      "us": 468,
      "era": 469,
      "amera": 470,
      "dule": 471,
      "Ġ*": 472,
      "abled": 473,
      "Size": 474,
      "--[[": 475,
      "ui": 476,
      "ween": 477,
      "ment": 478,
      "gle": 479,
      "lient": 480,
      "////": 481,
      "Up": 482,
      "ting": 483,
      "ack": 484,
      "Ġan": 485,
      "ĠP": 486,
      "urr": 487,
      "ĠW": 488,
      "urrent": 489,
      "Ġend": 490,
      "ay": 491,
      "irst": 492,
      "rop": 493,
      "ter": 494,
      "Ġfor": 495,
      "vent": 496,
      "ff": 497,
      "ive": 498,
      "Tran": 499,
      "ĠH": 500,
      "Sh": 501,
      "Ġ2": 502,
      "Ste": 503,
      "rol": 504,
      "ĠIn": 505,
      "Ġbe": 506,
      "ly": 507,
      "ency": 508,
      "ĠF": 509,
      "ĠEnum": 510,
      "ton": 511,
      "Mode": 512,
      "spar": 513,
      "ist": 514,
      "Color": 515,
      "ĠB": 516,
      "ĠD": 517,
      "Ad": 518,
      "Ġi": 519,
      "utton": 520,
      "Ġself": 521,
      "ens": 522,
      "Ġscript": 523,
      "First": 524,
      "ith": 525,
      "omp": 526,
      "Enabled": 527,
      "ma": 528,
      "sparency": 529,
      "ler": 530,
      "der": 531,
      "Is": 532,
      "ace": 533,
      "umb": 534,
      "elseif": 535,
      "~=": 536,
      "[\"": 537,
      "Ġthis": 538,
      "connect": 539,
      "\"]": 540,
      "ime": 541,
      "indFirst": 542,
      "PM": 543,
      "wait": 544,
      "ial": 545,
      "On": 546,
      "ver": 547,
      "ĠCFrame": 548,
      "Character": 549,
      "ap": 550,
      "indFirstChild": 551,
      "air": 552,
      "ine": 553,
      "ft": 554,
      "Ġvalue": 555,
      "Ġmath": 556,
      "Module": 557,
      "Transparency": 558,
      "op": 559,
      "Ġon": 560,
      "Play": 561,
      "ick": 562,
      "15": 563,
      "sh": 564,
      "Wait": 565,
      "erver": 566,
      "trol": 567,
      "Steer": 568,
      "ĠI": 569,
      "He": 570,
      "od": 571,
      "Ve": 572,
      "ase": 573,
      "eld": 574,
      "State": 575,
      "heel": 576,
      "key": 577,
      "Text": 578,
      "airs": 579,
      "ForChild": 580,
      "date": 581,
      "Sound": 582,
      "Id": 583,
      "Ġ~=": 584,
      "Ġwh": 585,
      "own": 586,
      "so": 587,
      "========": 588,
      "99": 589,
      "Ġit": 590,
      "Camera": 591,
      "Tor": 592,
      "Code": 593,
      "ote": 594,
      "Type": 595,
      "min": 596,
      "ert": 597,
      "ble": 598,
      "ĠVector": 599,
      "Ġgame": 600,
      "ip": 601,
      "WaitForChild": 602,
      "Button": 603,
      "Speed": 604,
      "25": 605,
      "UserInput": 606,
      "ĠRe": 607,
      "arget": 608,
      "Ġ+": 609,
      "Ġplayer": 610,
      "all": 611,
      "Event": 612,
      "ile": 613,
      "Ġif": 614,
      "qu": 615,
      "ange": 616,
      "Table": 617,
      "ĊĊĉ": 618,
      "rot": 619,
      "loc": 620,
      "ork": 621,
      "Angle": 622,
      "reate": 623,
      "ĠM": 624,
      "Ġy": 625,
      "ĠĠĠĠĠĠĠĠĠĠĠĠĠĠĠĠĠĠĠĠĠĠĠĠĠĠĠĠĠĠĠĠĠĠĠĠĠĠĠĠĠĠĠĠĠĠĠĠĠĠĠĠĠĠĠĠĠĠĠĠĠĠĠĠ": 626,
      "tings": 627,
      "Ġinput": 628,
      "Ġwith": 629,
      "})": 630,
      "Set": 631,
      "Ġpairs": 632,
      "ĠU": 633,
      "Right": 634,
      "ĠO": 635,
      "rad": 636,
      "ear": 637,
      "Seat": 638,
      "que": 639,
      "Ġcon": 640,
      "car": 641,
      "low": 642,
      "Mouse": 643,
      "fo": 644,
      "ign": 645,
      "locity": 646,
      "ĊĠĠĠ": 647,
      "lr": 648,
      "ou": 649,
      "ĠInstance": 650,
      "Cl": 651,
      "KeyCode": 652,
      "tem": 653,
      "ant": 654,
      "Ġl": 655,
      "ak": 656,
      "FindFirstChild": 657,
      "Ġe": 658,
      "ĊĉĉĊĉ": 659,
      "ard": 660,
      "Left": 661,
      "Ġ>": 662,
      "ĉĉĉĉĉĉĉĉĉĉĉĉĉĉĉĉ": 663,
      "Ġ/": 664,
      "rig": 665,
      "Gui": 666,
      "``": 667,
      "Ġ5": 668,
      "umber": 669,
      "Connect": 670,
      "rake": 671,
      "Ar": 672,
      "Ġma": 673,
      "Ex": 674,
      "ool": 675,
      "Ġreturn": 676,
      "Ġr": 677,
      "nit": 678,
      "ĠĠĠĠĠĠĠ": 679,
      "(-": 680,
      "Sp": 681,
      "ated": 682,
      "RPM": 683,
      "ible": 684,
      "Ġ3": 685,
      "Ġ<": 686,
      "Ġnew": 687,
      "mote": 688,
      "Max": 689,
      "Tra": 690,
      "Velocity": 691,
      "Ġ{}": 692,
      "Fire": 693,
      "utch": 694,
      "20": 695,
      "ude": 696,
      "eight": 697,
      "At": 698,
      "Object": 699,
      "Control": 700,
      "(_": 701,
      "player": 702,
      "ers": 703,
      "Ċĉĉĉĉĉĉĉĉ": 704,
      "Players": 705,
      "isible": 706,
      "Mag": 707,
      "Ċĉĉĉĉĉĉĉ": 708,
      "Ġ.": 709,
      "lass": 710,
      "Add": 711,
      "ach": 712,
      "Gear": 713,
      "Point": 714,
      "ĠN": 715,
      "rive": 716,
      "Ġmo": 717,
      "let": 718,
      "omm": 719,
      "pp": 720,
      "vel": 721,
      "ati": 722,
      "par": 723,
      "10": 724,
      "Update": 725,
      "ĊĊĉĉ": 726,
      "uch": 727,
      "oot": 728,
      "Info": 729,
      "Ġfrom": 730,
      "ropert": 731,
      "Ġset": 732,
      "ew": 733,
      "Tool": 734,
      "Ġwill": 735,
      "('": 736,
      "Light": 737,
      "Im": 738,
      "oll": 739,
      "iv": 740,
      "())": 741,
      "ust": 742,
      "ren": 743,
      "////////": 744,
      "Ġar": 745,
      "Ġ,": 746,
      "Time": 747,
      "ount": 748,
      "Drive": 749,
      "space": 750,
      "ĠCh": 751,
      "her": 752,
      "Ġthat": 753,
      "stro": 754,
      "stroy": 755,
      "ub": 756,
      "ĠV": 757,
      "ray": 758,
      "ure": 759,
      "Aut": 760,
      "dex": 761,
      "orkspace": 762,
      "Ġ'": 763,
      "Tween": 764,
      "cl": 765,
      "eck": 766,
      "ĠSet": 767,
      "eng": 768,
      "Client": 769,
      "----------------------------------------------------------------": 770,
      "max": 771,
      "17": 772,
      "ont": 773,
      "},": 774,
      "Throt": 775,
      "CT": 776,
      "ĉĉĉ": 777,
      "Ġstring": 778,
      "string": 779,
      "Server": 780,
      "Image": 781,
      "bo": 782,
      "Create": 783,
      "table": 784,
      "Off": 785,
      "ommand": 786,
      "Dis": 787,
      "],": 788,
      "_.": 789,
      "ift": 790,
      "ater": 791,
      "80": 792,
      "iff": 793,
      "older": 794,
      "ang": 795,
      "nitude": 796,
      "ress": 797,
      "')": 798,
      "Brake": 799,
      "quire": 800,
      "50": 801,
      "Ġkey": 802,
      "ator": 803,
      "ension": 804,
      "cess": 805,
      "16": 806,
      "100": 807,
      "'t": 808,
      "ower": 809,
      "Ġup": 810,
      "andle": 811,
      "last": 812,
      "((": 813,
      "Visible": 814,
      "Torso": 815,
      "ort": 816,
      "Ġsh": 817,
      "Ġyou": 818,
      "cre": 819,
      "apon": 820,
      "ody": 821,
      "IsA": 822,
      "Ġtable": 823,
      "Script": 824,
      "Ġex": 825,
      "isc": 826,
      "move": 827,
      "fa": 828,
      "ward": 829,
      "ump": 830,
      "ave": 831,
      "ds": 832,
      "Ġhumanoid": 833,
      "ĠDe": 834,
      "andom": 835,
      "Ġse": 836,
      "ignal": 837,
      "sc": 838,
      ");": 839,
      "sult": 840,
      "tach": 841,
      "Children": 842,
      "irection": 843,
      "Ġwhen": 844,
      "RL": 845,
      "nection": 846,
      "Ġtype": 847,
      "eapon": 848,
      "ess": 849,
      "eg": 850,
      "Move": 851,
      "oul": 852,
      "ual": 853,
      "call": 854,
      "to": 855,
      "Ġrequire": 856,
      "tle": 857,
      "ness": 858,
      "Ġ[": 859,
      "Ġlo": 860,
      "ise": 861,
      "12": 862,
      "Destroy": 863,
      "14": 864,
      "atch": 865,
      "param": 866,
      "UserInputState": 867,
      "Back": 868,
      "right": 869,
      "Dim": 870,
      "Ġdata": 871,
      "amp": 872,
      "._": 873,
      "]=": 874,
      "ĠColor": 875,
      "Item": 876,
      "ok": 877,
      "Run": 878,
      "current": 879,
      "asing": 880,
      "Offset": 881,
      "Ġchange": 882,
      "Out": 883,
      "ĠTh": 884,
      "Start": 885,
      "args": 886,
      "eam": 887,
      "ption": 888,
      "anged": 889,
      "88": 890,
      "Al": 891,
      "Pro": 892,
      "lu": 893,
      "Ġ`": 894,
      "Track": 895,
      "://": 896,
      "rint": 897,
      "60": 898,
      "Ġcan": 899,
      "lic": 900,
      "75": 901,
      "fault": 902,
      "Ġby": 903,
      "Load": 904,
      "Ġ..": 905,
      "GetChildren": 906,
      "Main": 907,
      "Animation": 908,
      ")/": 909,
      "ĠG": 910,
      "DriveSeat": 911,
      "Ġany": 912,
      "ĠHit": 913,
      "13": 914,
      "28": 915,
      "Weld": 916,
      "Auto": 917,
      "ag": 918,
      "Ġchild": 919,
      "---": 920,
      "GetService": 921,
      "Ġuse": 922,
      "--//": 923,
      "Sus": 924,
      "essage": 925,
      "list": 926,
      "Touch": 927,
      "=[": 928,
      "24": 929,
      "ror": 930,
      "tain": 931,
      "tachment": 932,
      "fig": 933,
      "oil": 934,
      "ies": 935,
      "Function": 936,
      "ĠTween": 937,
      "ength": 938,
      "Ġal": 939,
      "ON": 940,
      "av": 941,
      "Ġat": 942,
      ")*": 943,
      "Ġpart": 944,
      "==\"": 945,
      "ume": 946,
      "Thre": 947,
      "Values": 948,
      "Rot": 949,
      "plr": 950,
      "Ġ_,": 951,
      "Changed": 952,
      "ix": 953,
      "ullet": 954,
      "alth": 955,
      "ary": 956,
      "90": 957,
      "lick": 958,
      "back": 959,
      "amage": 960,
      "Ġwheel": 961,
      "abs": 962,
      "UI": 963,
      "Ġ4": 964,
      "================": 965,
      "Arm": 966,
      "cast": 967,
      "Comp": 968,
      "Torque": 969,
      "part": 970,
      "84": 971,
      "game": 972,
      "istance": 973,
      "out": 974,
      "ider": 975,
      "ĠĠĠĠĠĠĠĠĠĠĠĠĠĠĠĠĠĠĠĠĠĠĠĠĠĠĠĠĠĠĠĠĠĠĠĠĠĠĠĠĠĠĠĠĠĠĠĠĠĠĠĠĠĠĠĠĠĠĠĠĠĠĠĠĠĠĠĠĠĠĠĠĠĠĠĠĠĠĠĠĠĠĠĠĠĠĠĠĠĠĠĠĠĠĠĠĠĠĠĠĠĠĠĠĠĠĠĠĠĠĠĠĠĠĠĠĠĠĠĠĠĠĠĠĠĠĠĠ": 976,
      "per": 977,
      "]=]": 978,
      "UserData": 979,
      "--[=[": 980,
      "old": 981,
      "End": 982,
      "Easing": 983,
      "\";": 984,
      "ĠSettings": 985,
      "IN": 986,
      "_/": 987,
      "Remote": 988,
      "aterial": 989,
      "ord": 990,
      "Ġspeed": 991,
      "64": 992,
      "ache": 993,
      "port": 994,
      "CGear": 995,
      "yn": 996,
      "Ġcharacter": 997,
      "Ġcurrent": 998,
      "List": 999,
      "ake": 1000,
      "our": 1001,
      "ĊĠĠĠĠĠĠĠĠ": 1002,
      "from": 1003,
      "Ġun": 1004,
      "Icon": 1005,
      "rick": 1006,
      "000": 1007,
      "play": 1008,
      "plic": 1009,
      "usp": 1010,
      "sert": 1011,
      "alk": 1012,
      "29": 1013,
      "Act": 1014,
      "Down": 1015,
      "Ġare": 1016,
      "til": 1017,
      "ĉĉĉĉĉĉĉĉĉĉĉĉĉĉĉĉĉĉĉĉĉĉĉĉĉĉĉĉĉĉĉĉ": 1018,
      "Body": 1019,
      "Head": 1020,
      "Magnitude": 1021,
      "down": 1022,
      "Ġ]]": 1023,
      "ER": 1024,
      "Un": 1025,
      "Ġne": 1026,
      "uspension": 1027,
      "Ġas": 1028,
      "Force": 1029,
      "ĠUDim": 1030,
      "```": 1031,
      "23": 1032,
      "Core": 1033,
      "Pre": 1034,
      "qui": 1035,
      "child": 1036,
      "CS": 1037,
      "Model": 1038,
      "obj": 1039,
      "olume": 1040,
      "Local": 1041,
      "dd": 1042,
      "ĠPlayer": 1043,
      "Ġservice": 1044,
      "Ġobject": 1045,
      "ounce": 1046,
      "eak": 1047,
      "Ġcar": 1048,
      "andler": 1049,
      "Ġvalues": 1050,
      "gro": 1051,
      "ps": 1052,
      "random": 1053,
      "ĠCon": 1054,
      "wn": 1055,
      "Angles": 1056,
      "oo": 1057,
      "ĠThe": 1058,
      "roperty": 1059,
      "\"):": 1060,
      "Current": 1061,
      "und": 1062,
      ").": 1063,
      "lect": 1064,
      "Don": 1065,
      "print": 1066,
      "pped": 1067,
      "Class": 1068,
      "asset": 1069,
      "ail": 1070,
      "Root": 1071,
      "CTRL": 1072,
      "lash": 1073,
      "ence": 1074,
      "ĠCast": 1075,
      "Stor": 1076,
      "ari": 1077,
      "Throttle": 1078,
      "speed": 1079,
      "ww": 1080,
      "icle": 1081,
      "Hit": 1082,
      "ĊĊĉĉĉ": 1083,
      "Can": 1084,
      "sion": 1085,
      "abel": 1086,
      "ĠClient": 1087,
      "Controller": 1088,
      "Clone": 1089,
      "Label": 1090,
      "Weight": 1091,
      "ĠRPM": 1092,
      "19": 1093,
      "'s": 1094,
      "run": 1095,
      "65": 1096,
      "com": 1097,
      "OR": 1098,
      "Jump": 1099,
      "romise": 1100,
      "Man": 1101,
      "78": 1102,
      "ish": 1103,
      "Make": 1104,
      "atio": 1105,
      "inal": 1106,
      "ffect": 1107,
      "lutch": 1108,
      "lean": 1109,
      "Attachment": 1110,
      "Wheel": 1111,
      "Ġ|": 1112,
      "onent": 1113,
      "insert": 1114,
      "Ġget": 1115,
      "Action": 1116,
      "ĠSuspension": 1117,
      "blo": 1118,
      "ute": 1119,
      "Added": 1120,
      "Level": 1121,
      "str": 1122,
      "Pos": 1123,
      "Ġ10": 1124,
      "Lock": 1125,
      "Ġ{\"": 1126,
      "30": 1127,
      "ĠChill": 1128,
      "ning": 1129,
      "35": 1130,
      "].": 1131,
      "chor": 1132,
      "anim": 1133,
      "Direction": 1134,
      "ables": 1135,
      "rag": 1136,
      "67": 1137,
      "Lim": 1138,
      "cale": 1139,
      "input": 1140,
      "Clutch": 1141,
      "Ġtill": 1142,
      "Mult": 1143,
      "iew": 1144,
      "Settings": 1145,
      "ĊĠĠĠĠĠĠĠ": 1146,
      "comp": 1147,
      "bs": 1148,
      "ggle": 1149,
      "Misc": 1150,
      "get": 1151,
      "--]]": 1152,
      "ensity": 1153,
      "DI": 1154,
      "tainer": 1155,
      "Ġall": 1156,
      "form": 1157,
      "Ġoff": 1158,
      "Ġche": 1159,
      "gre": 1160,
      "BS": 1161,
      "Char": 1162,
      "ass": 1163,
      "ask": 1164,
      "ccess": 1165,
      "Ġcheck": 1166,
      "data": 1167,
      "Ġmodule": 1168,
      "Instance": 1169,
      "rev": 1170,
      "ground": 1171,
      "point": 1172,
      "Ġcamera": 1173,
      "Pri": 1174,
      "Stop": 1175,
      "Cont": 1176,
      "Storage": 1177,
      "face": 1178,
      "atum": 1179,
      "Ġname": 1180,
      "blox": 1181,
      "eturn": 1182,
      "70": 1183,
      "Mod": 1184,
      "Ġle": 1185,
      "Volume": 1186,
      "ĠTool": 1187,
      "si": 1188,
      "Ġnumber": 1189,
      "pad": 1190,
      "Ġ#": 1191,
      "Material": 1192,
      "objs": 1193,
      "coil": 1194,
      "Target": 1195,
      "imb": 1196,
      "scend": 1197,
      "Ġ100": 1198,
      "sed": 1199,
      "ubject": 1200,
      "lip": 1201,
      "ĠThis": 1202,
      "scendant": 1203,
      "ĊĉĉĉĊĉĉ": 1204,
      "br": 1205,
      "user": 1206,
      "yle": 1207,
      "itch": 1208,
      "(.": 1209,
      "ront": 1210,
      "Of": 1211,
      "bar": 1212,
      "Shift": 1213,
      "Health": 1214,
      "The": 1215,
      "Ray": 1216,
      "Ġstu": 1217,
      "Idle": 1218,
      "line": 1219,
      "pec": 1220,
      "Click": 1221,
      "oor": 1222,
      "Ġhit": 1223,
      "93": 1224,
      "RootPart": 1225,
      "not": 1226,
      "stick": 1227,
      "68": 1228,
      "[[": 1229,
      "45": 1230,
      "Rev": 1231,
      "Beg": 1232,
      "TCS": 1233,
      "Ġpoint": 1234,
      "RE": 1235,
      "ĠLo": 1236,
      "____": 1237,
      "eaponData": 1238,
      "lat": 1239,
      "};": 1240,
      "enu": 1241,
      "instance": 1242,
      "humanoid": 1243,
      "Ġlocal": 1244,
      "_:": 1245,
      "Ġclient": 1246,
      "gs": 1247,
      "ĠHumanoid": 1248,
      "Ġpar": 1249,
      "Cast": 1250,
      "ender": 1251,
      "Ġserver": 1252,
      "met": 1253,
      "Cache": 1254,
      "grees": 1255,
      "Ġmax": 1256,
      "frame": 1257,
      "ĠAr": 1258,
      "bx": 1259,
      "Bullet": 1260,
      "AnimTrack": 1261,
      "Base": 1262,
      "Count": 1263,
      "value": 1264,
      "name": 1265,
      "roperties": 1266,
      "Min": 1267,
      "findFirstChild": 1268,
      "htt": 1269,
      "other": 1270,
      "Background": 1271,
      "18": 1272,
      "est": 1273,
      "Ġen": 1274,
      "ĠCore": 1275,
      "Result": 1276,
      "dle": 1277,
      "ĠClientModule": 1278,
      "ead": 1279,
      "ere": 1280,
      "unc": 1281,
      "Ġmode": 1282,
      "Veh": 1283,
      "umbstick": 1284,
      "27": 1285,
      "ĠE": 1286,
      "FireServer": 1287,
      "icon": 1288,
      "oc": 1289,
      "Style": 1290,
      "ositive": 1291,
      "error": 1292,
      "service": 1293,
      "Peak": 1294,
      "ĊĠĠĠĠĠĠĠĠĠĠĠ": 1295,
      "rickColor": 1296,
      "urve": 1297,
      "ariables": 1298,
      "Store": 1299,
      "*(": 1300,
      "Check": 1301,
      "hit": 1302,
      "sg": 1303,
      "Ġpositive": 1304,
      "Signal": 1305,
      "word": 1306,
      "',": 1307,
      "pl": 1308,
      "true": 1309,
      "ua": 1310,
      "ĠItem": 1311,
      "La": 1312,
      "Leg": 1313,
      "Joint": 1314,
      "Am": 1315,
      "Ġrun": 1316,
      "LE": 1317,
      "Admin": 1318,
      "Ġanim": 1319,
      "AT": 1320,
      "44": 1321,
      "::": 1322,
      "Charge": 1323,
      "Distance": 1324,
      "Ġ--[[": 1325,
      "Game": 1326,
      "false": 1327,
      "ould": 1328,
      "Ġ6": 1329,
      "Toggle": 1330,
      "ĠĊĉ": 1331,
      "rops": 1332,
      "Ġtor": 1333,
      "ĠGet": 1334,
      "lock": 1335,
      "Command": 1336,
      "ank": 1337,
      "Anchor": 1338,
      "][": 1339,
      "weld": 1340,
      "iddle": 1341,
      "255": 1342,
      "Ġid": 1343,
      "Ġj": 1344,
      "Container": 1345,
      "Sc": 1346,
      "oulder": 1347,
      "ain": 1348,
      "Index": 1349,
      "mov": 1350,
      "////////////////": 1351,
      "ĠTweenInfo": 1352,
      "plicated": 1353,
      "atic": 1354,
      "Red": 1355,
      "Ġtarget": 1356,
      "lace": 1357,
      "ition": 1358,
      "\"},": 1359,
      "Ġmore": 1360,
      "}):": 1361,
      "awn": 1362,
      "Parts": 1363,
      "Ġcode": 1364,
      "Diff": 1365,
      "wh": 1366,
      "Active": 1367,
      "55": 1368,
      "iven": 1369,
      "sin": 1370,
      "Det": 1371,
      "atios": 1372,
      "cay": 1373,
      "Conn": 1374,
      "ĠSh": 1375,
      "ats": 1376,
      "IS": 1377,
      "roup": 1378,
      "Descendant": 1379,
      "Tc": 1380,
      "77": 1381,
      "Ġwait": 1382,
      "Folder": 1383,
      "cam": 1384,
      "rip": 1385,
      "ĠTarget": 1386,
      "Col": 1387,
      "Ġworkspace": 1388,
      "Ġ(_": 1389,
      "32": 1390,
      "Ġplr": 1391,
      "ustom": 1392,
      "pen": 1393,
      "Ġclutch": 1394,
      "Trans": 1395,
      "ABS": 1396,
      "ied": 1397,
      "mis": 1398,
      "rack": 1399,
      "io": 1400,
      "UserInputService": 1401,
      "creen": 1402,
      "Maid": 1403,
      "Ġhave": 1404,
      "ĊĊĠĠĠ": 1405,
      "Exp": 1406,
      "]:": 1407,
      "EasingStyle": 1408,
      "rbx": 1409,
      "Ref": 1410,
      "Limit": 1411,
      "**": 1412,
      "Chat": 1413,
      "riction": 1414,
      "char": 1415,
      "Particle": 1416,
      "Handle": 1417,
      "ca": 1418,
      "Ġcall": 1419,
      "Scale": 1420,
      "mal": 1421,
      "load": 1422,
      "led": 1423,
      "Height": 1424,
      "_,": 1425,
      "ĠComp": 1426,
      "Ġinstance": 1427,
      "Change": 1428,
      "96": 1429,
      "Effect": 1430,
      "gin": 1431,
      "Bind": 1432,
      "HE": 1433,
      "Ġcomp": 1434,
      "Subject": 1435,
      "Ġ@": 1436,
      "plicatedStorage": 1437,
      "ĠSp": 1438,
      "ug": 1439,
      "eth": 1440,
      "cce": 1441,
      "light": 1442,
      "Ġsp": 1443,
      "Ġstuds": 1444,
      "look": 1445,
      "mission": 1446,
      "PI": 1447,
      "Ġargs": 1448,
      "ired": 1449,
      "------------------------": 1450,
      "...": 1451,
      "Events": 1452,
      "ropdown": 1453,
      "AN": 1454,
      "GS": 1455,
      "omatic": 1456,
      "SI": 1457,
      "Ġk": 1458,
      "rans": 1459,
      "while": 1460,
      "Ġtime": 1461,
      "enter": 1462,
      "file": 1463,
      "ased": 1464,
      "quipped": 1465,
      "33": 1466,
      "Message": 1467,
      "ory": 1468,
      "lide": 1469,
      "fix": 1470,
      "RG": 1471,
      "MouseButton": 1472,
      "fter": 1473,
      "ti": 1474,
      "Ġpro": 1475,
      "Hor": 1476,
      "sub": 1477,
      "uration": 1478,
      "ClientModule": 1479,
      "Lean": 1480,
      "New": 1481,
      "DataStore": 1482,
      "Ġ20": 1483,
      "Bar": 1484,
      "TDI": 1485,
      "Ġevent": 1486,
      "MainVeh": 1487,
      "HumanoidRootPart": 1488,
      "tag": 1489,
      "AL": 1490,
      "Length": 1491,
      "):": 1492,
      "ormal": 1493,
      "-.": 1494,
      "ĠY": 1495,
      "radi": 1496,
      "itial": 1497,
      "Ġout": 1498,
      "gcy": 1499,
      "ree": 1500,
      "Laser": 1501,
      "ero": 1502,
      "tq": 1503,
      "sound": 1504,
      "war": 1505,
      "wspeed": 1506,
      "Recoil": 1507,
      "ĠRo": 1508,
      "___/": 1509,
      "Team": 1510,
      "Workspace": 1511,
      "ade": 1512,
      "pi": 1513,
      "castResult": 1514,
      "otor": 1515,
      "hy": 1516,
      "Config": 1517,
      "lua": 1518,
      "Ġ->": 1519,
      "eturns": 1520,
      "Ġper": 1521,
      "urface": 1522,
      "ĠRay": 1523,
      "OT": 1524,
      "Util": 1525,
      "Ġdefault": 1526,
      "bris": 1527,
      "ener": 1528,
      "FF": 1529,
      "Ġinto": 1530,
      "Ġtool": 1531,
      "ĠWeaponData": 1532,
      "LocalPlayer": 1533,
      "ET": 1534,
      "38": 1535,
      "lot": 1536,
      "ry": 1537,
      "])": 1538,
      "26": 1539,
      "mag": 1540,
      "OU": 1541,
      "ject": 1542,
      "ST": 1543,
      "ument": 1544,
      "\").": 1545,
      "Ġ<=": 1546,
      "rbxasset": 1547,
      "Connection": 1548,
      "lative": 1549,
      "me": 1550,
      "Ġstart": 1551,
      "lugin": 1552,
      "uct": 1553,
      "Ġgiven": 1554,
      "og": 1555,
      "Ġcommand": 1556,
      "ishb": 1557,
      "Ġran": 1558,
      "From": 1559,
      "ĠSt": 1560,
      "RGB": 1561,
      "power": 1562,
      "Anti": 1563,
      "ishbone": 1564,
      "Ġchar": 1565,
      "fromRGB": 1566,
      "GSteer": 1567,
      "Rank": 1568,
      "ld": 1569,
      "scription": 1570,
      "Ġyour": 1571,
      "ield": 1572,
      "ĊĊĉĉĉĉ": 1573,
      "Zone": 1574,
      "Ġdis": 1575,
      "Ws": 1576,
      "ĠWishbone": 1577,
      "xt": 1578,
      "Ġused": 1579,
      "Ġlist": 1580,
      "Ġother": 1581,
      "ĠAd": 1582,
      "Rad": 1583,
      "Ġadd": 1584,
      "lower": 1585,
      "Lgcy": 1586,
      "Ġfound": 1587,
      "Names": 1588,
      "Ġproperty": 1589,
      "ich": 1590,
      "roll": 1591,
      "Collide": 1592,
      "As": 1593,
      "ster": 1594,
      "UserInputType": 1595,
      "ollider": 1596,
      "ION": 1597,
      "lose": 1598,
      "34": 1599,
      "Path": 1600,
      ",-": 1601,
      "read": 1602,
      "Ġonly": 1603,
      "Per": 1604,
      "main": 1605,
      "ipli": 1606,
      "bounce": 1607,
      "ec": 1608,
      "Ġĉ": 1609,
      "reak": 1610,
      "arm": 1611,
      "Manual": 1612,
      "08": 1613,
      "Ġindex": 1614,
      "Ġstr": 1615,
      "nil": 1616,
      "yro": 1617,
      "sepower": 1618,
      "Ġ500": 1619,
      "ide": 1620,
      "Ġstate": 1621,
      "rain": 1622,
      "ud": 1623,
      "Walk": 1624,
      "Ġ7": 1625,
      "verse": 1626,
      "ner": 1627,
      "MSteer": 1628,
      "Ġro": 1629,
      "cent": 1630,
      "ep": 1631,
      "gear": 1632,
      "opy": 1633,
      "Begin": 1634,
      "pect": 1635,
      "Ġtick": 1636,
      "DE": 1637,
      "Ċĉĉĉĉĉĉĉĉĉ": 1638,
      "Pitch": 1639,
      "lag": 1640,
      "Prefix": 1641,
      "iplier": 1642,
      "ĠWheel": 1643,
      "Ġparent": 1644,
      "mary": 1645,
      "olute": 1646,
      "Ġman": 1647,
      "Ġ___": 1648,
      "CanCollide": 1649,
      "veh": 1650,
      "tack": 1651,
      "11": 1652,
      "View": 1653,
      "ĠArm": 1654,
      "https": 1655,
      "98": 1656,
      "pack": 1657,
      "ĉĉĉĉĉĉĉĉĉĉĉĉĉĉĉĉĉĉĉĉĉĉĉĉĉĉĉĉĉĉĉĉĉĉĉĉĉĉĉĉĉĉĉĉĉĉĉĉĉĉĉĉĉĉĉĉĉĉĉĉĉĉĉĉ": 1658,
      "mit": 1659,
      "character": 1660,
      "LO": 1661,
      "ĠX": 1662,
      "Ġ((": 1663,
      "time": 1664,
      "76": 1665,
      "eat": 1666,
      "ĠRemote": 1667,
      "Render": 1668,
      "lement": 1669,
      "05": 1670,
      "doll": 1671,
      "Friction": 1672,
      "Grip": 1673,
      "sired": 1674,
      "ilter": 1675,
      "Ġforce": 1676,
      "collider": 1677,
      "dis": 1678,
      "ĠEx": 1679,
      "otal": 1680,
      "\"))": 1681,
      "22": 1682,
      "Properties": 1683,
      "bl": 1684,
      "ĠĠĠĠĠĠĠĠĠĠĠĠĠĠĠĠĠĠĠĠĠĠĠĠĠĠĠĠĠĠĠĠĠĠĠĠĠĠĠĠĠĠĠĠĠĠĠĠĠĠĠĠĠĠĠĠĠĠĠĠĠĠĠĠĠĠĠĠĠĠĠĠĠĠĠĠĠĠĠĠĠĠĠĠĠĠĠĠĠĠĠĠĠĠĠĠĠĠĠĠĠĠĠĠĠĠĠĠĠĠĠĠĠĠĠĠĠĠĠĠĠĠĠĠĠĠĠĠĠĠĠĠĠĠĠĠĠĠĠĠĠĠĠĠĠĠĠĠĠĠĠĠĠĠĠĠĠĠĠĠĠĠĠĠĠĠĠĠĠĠĠĠĠĠĠĠĠĠĠĠĠĠĠĠĠĠĠĠĠĠĠĠĠĠĠĠĠĠĠĠĠĠĠĠĠĠĠĠĠĠĠĠĠĠĠĠĠĠĠĠĠĠĠĠĠĠĠĠĠĠĠĠĠĠĠĠĠĠĠĠĠĠĠĠĠĠĠĠĠĠĠĠĠĠĠĠ": 1685,
      "Plot": 1686,
      "ts": 1687,
      "Ġ>=": 1688,
      "Thresh": 1689,
      "way": 1690,
      "Ġwant": 1691,
      "ĠPromise": 1692,
      "Ġuser": 1693,
      "www": 1694,
      "EN": 1695,
      "cc": 1696,
      "ox": 1697,
      "ĠIf": 1698,
      "ose": 1699,
      "Bla": 1700,
      "bsolute": 1701,
      "Ammo": 1702,
      "ĠLua": 1703,
      "9999": 1704,
      "update": 1705,
      "\"].": 1706,
      "eer": 1707,
      "ark": 1708,
      "Absolute": 1709,
      "Not": 1710,
      "IsOn": 1711,
      "ocus": 1712,
      "Disconnect": 1713,
      "94": 1714,
      "loor": 1715,
      "igher": 1716,
      "Last": 1717,
      "Motor": 1718,
      "AR": 1719,
      "Or": 1720,
      "Zero": 1721,
      "imbcollider": 1722,
      "iled": 1723,
      "Ġso": 1724,
      "Ax": 1725,
      "Steering": 1726,
      "ĠAdd": 1727,
      "Modes": 1728,
      "HP": 1729,
      "cul": 1730,
      "ĠĊ": 1731,
      "atable": 1732,
      "Remove": 1733,
      "box": 1734,
      "Ġhas": 1735,
      "Ġ50": 1736,
      "Explo": 1737,
      "Remov": 1738,
      "Ġload": 1739,
      "lection": 1740,
      "ync": 1741,
      "95": 1742,
      "Ratios": 1743,
      "EasingDirection": 1744,
      "Ġweight": 1745,
      "ethod": 1746,
      "rror": 1747,
      "Handler": 1748,
      "TMode": 1749,
      "Log": 1750,
      "Ġitem": 1751,
      "Damage": 1752,
      "gn": 1753,
      "ome": 1754,
      "Door": 1755,
      "ĠÐ": 1756,
      "orld": 1757,
      "board": 1758,
      "Number": 1759,
      "msg": 1760,
      "Debris": 1761,
      "GThrot": 1762,
      "Ġwe": 1763,
      "Ġwhich": 1764,
      "+(": 1765,
      "97": 1766,
      "Ġem": 1767,
      "Map": 1768,
      "Open": 1769,
      "Forward": 1770,
      "lerp": 1771,
      "Ġcontrol": 1772,
      "ening": 1773,
      "This": 1774,
      "Horsepower": 1775,
      "Datum": 1776,
      "Thres": 1777,
      "ĠSpring": 1778,
      "Ġmain": 1779,
      "match": 1780,
      "BrickColor": 1781,
      "row": 1782,
      "Ratio": 1783,
      "Ġpre": 1784,
      "Ġsword": 1785,
      "ĠAl": 1786,
      "Ġmove": 1787,
      "magnitude": 1788,
      "Qu": 1789,
      "Ġobj": 1790,
      "Movement": 1791,
      "ger": 1792,
      "Ġlast": 1793,
      "Bounce": 1794,
      "Ġ...": 1795,
      "ĉĊ": 1796,
      "ific": 1797,
      "ĠTra": 1798,
      "Ġarray": 1799,
      "of": 1800,
      "Redline": 1801,
      "olt": 1802,
      "emi": 1803,
      "MagC": 1804,
      "Incl": 1805,
      "Custom": 1806,
      "class": 1807,
      "uccess": 1808,
      "Ġ\"..": 1809,
      "Ġdegrees": 1810,
      "ell": 1811,
      "ĠMax": 1812,
      "Curve": 1813,
      "type": 1814,
      "ross": 1815,
      "Ġwork": 1816,
      "ĠTor": 1817,
      "tool": 1818,
      "ĠFunction": 1819,
      "uge": 1820,
      "Ġim": 1821,
      "All": 1822,
      "dropdown": 1823,
      "uler": 1824,
      "metatable": 1825,
      "menu": 1826,
      "--------------------": 1827,
      "Ġgo": 1828,
      "Display": 1829,
      "erence": 1830,
      "Ġmult": 1831,
      "idth": 1832,
      "Ġray": 1833,
      "Ġresult": 1834,
      "Semi": 1835,
      "oom": 1836,
      "ragdoll": 1837,
      "PBrake": 1838,
      "ING": 1839,
      "UN": 1840,
      "ority": 1841,
      "Ġact": 1842,
      "Decay": 1843,
      "Ġposition": 1844,
      "peat": 1845,
      "upport": 1846,
      "Automatic": 1847,
      "Ġmake": 1848,
      ",\"": 1849,
      "Hip": 1850,
      "ID": 1851,
      "lected": 1852,
      "Ġarg": 1853,
      "ĊĉĉĊ": 1854,
      "\"}": 1855,
      "mouse": 1856,
      "Ġupdate": 1857,
      "lider": 1858,
      "carSeat": 1859,
      "Ended": 1860,
      "alid": 1861,
      "gion": 1862,
      "ical": 1863,
      "({": 1864,
      "WD": 1865,
      "Wh": 1866,
      "over": 1867,
      "ReplicatedStorage": 1868,
      "bi": 1869,
      "indow": 1870,
      "37": 1871,
      "client": 1872,
      "Upper": 1873,
      "ampening": 1874,
      "Focus": 1875,
      "cond": 1876,
      "58": 1877,
      "Density": 1878,
      "UserId": 1879,
      "Ġangle": 1880,
      "GUI": 1881,
      "pos": 1882,
      "With": 1883,
      "atus": 1884,
      "aker": 1885,
      "lastic": 1886,
      "ĠLuau": 1887,
      "gnore": 1888,
      "ME": 1889,
      "inge": 1890,
      "oth": 1891,
      "Lightbar": 1892,
      "Ġtween": 1893,
      "ĠĠĠĠĠ": 1894,
      "urbo": 1895,
      "Ġone": 1896,
      "ader": 1897,
      "Ġright": 1898,
      "quence": 1899,
      "Ġus": 1900,
      "================================": 1901,
      "text": 1902,
      "TS": 1903,
      "String": 1904,
      "Ġboo": 1905,
      "fore": 1906,
      "Shoulder": 1907,
      "TweenJoint": 1908,
      "Error": 1909,
      "connection": 1910,
      ")))": 1911,
      "VE": 1912,
      "ager": 1913,
      "Lower": 1914,
      "stra": 1915,
      "ĠDatum": 1916,
      "Lights": 1917,
      "Pan": 1918,
      "GSteerT": 1919,
      "Ġtostring": 1920,
      "tern": 1921,
      "Pad": 1922,
      "ĠHandle": 1923,
      "Shot": 1924,
      "Hand": 1925,
      "Ġinst": 1926,
      "ClassName": 1927,
      "Be": 1928,
      "TweenInfo": 1929,
      "Functions": 1930,
      "Equipped": 1931,
      "Ġerror": 1932,
      "ĊĠ": 1933,
      "Primary": 1934,
      "Box": 1935,
      "damage": 1936,
      "ned": 1937,
      "place": 1938,
      "Ġad": 1939,
      "Ġtorque": 1940,
      "WsB": 1941,
      "Obj": 1942,
      "RI": 1943,
      "Ġz": 1944,
      "Ġsize": 1945,
      "ĠDensity": 1946,
      "RotVelocity": 1947,
      "tween": 1948,
      "relative": 1949,
      "Shar": 1950,
      "clone": 1951,
      "pairs": 1952,
      "Ġ8": 1953,
      "izont": 1954,
      "Running": 1955,
      "izontal": 1956,
      "63": 1957,
      "Returns": 1958,
      "roblox": 1959,
      "Spin": 1960,
      "Activ": 1961,
      "Ġoffset": 1962,
      "Ġ:": 1963,
      "Sequence": 1964,
      "21": 1965,
      "Dist": 1966,
      "XY": 1967,
      "-----": 1968,
      "Ġipairs": 1969,
      "Descendants": 1970,
      "WalkSpeed": 1971,
      "FD": 1972,
      "Ðµ": 1973,
      "FSus": 1974,
      "Emit": 1975,
      "ĠTweenService": 1976,
      "off": 1977,
      "Func": 1978,
      "\"])": 1979,
      "ubble": 1980,
      "pecial": 1981,
      "Tem": 1982,
      "\",\"": 1983,
      "Ġlength": 1984,
      "Ġexist": 1985,
      "ulerAngles": 1986,
      "RSus": 1987,
      "object": 1988,
      "Ne": 1989,
      "Priority": 1990,
      "OL": 1991,
      "Ġboolean": 1992,
      "bind": 1993,
      "gui": 1994,
      "ĠOn": 1995,
      "ickness": 1996,
      "Screen": 1997,
      "ius": 1998,
      "index": 1999,
      "lear": 2000,
      "currentAnimTrack": 2001,
      "ĠPro": 2002,
      "XYZ": 2003,
      "floor": 2004,
      "ĠK": 2005,
      "Ġmin": 2006,
      "Ġhandle": 2007,
      "..\"": 2008,
      "No": 2009,
      "];": 2010,
      "cf": 2011,
      "Ġcreate": 2012,
      "Att": 2013,
      "Controls": 2014,
      "EulerAngles": 2015,
      "dic": 2016,
      "number": 2017,
      "ifting": 2018,
      "Ġwheels": 2019,
      "ĠControl": 2020,
      "straint": 2021,
      "target": 2022,
      "ĠEn": 2023,
      "app": 2024,
      "BackgroundColor": 2025,
      "bal": 2026,
      "Ġve": 2027,
      "ĠCharacter": 2028,
      "Ġbased": 2029,
      "ĠMisc": 2030,
      "Trail": 2031,
      "Surface": 2032,
      "iffness": 2033,
      "Component": 2034,
      "IdleThrottle": 2035,
      "Call": 2036,
      "Ġcal": 2037,
      "iler": 2038,
      "Ġshould": 2039,
      "fromEulerAngles": 2040,
      "Top": 2041,
      "Front": 2042,
      "ĠJ": 2043,
      "Ġtop": 2044,
      "ĠSize": 2045,
      ")}):": 2046,
      "Ġneed": 2047,
      "lookVector": 2048,
      "Ġallow": 2049,
      "Bolt": 2050,
      "Ġnext": 2051,
      "Anchored": 2052,
      "caption": 2053,
      "Slash": 2054,
      "Sw": 2055,
      "radient": 2056,
      "Property": 2057,
      "mode": 2058,
      "Ġfolder": 2059,
      "Rear": 2060,
      "Ġframe": 2061,
      "ignment": 2062,
      "imer": 2063,
      "CurrentCamera": 2064,
      "01": 2065,
      "Roll": 2066,
      "Task": 2067,
      "FL": 2068,
      "find": 2069,
      "Ġreturns": 2070,
      "ached": 2071,
      "PeakRPM": 2072,
      "\"..": 2073,
      "Group": 2074,
      "fromEulerAnglesXYZ": 2075,
      "ĠUpdate": 2076,
      "Loop": 2077,
      "Manager": 2078,
      "PrimaryPart": 2079,
      "vance": 2080,
      "ene": 2081,
      "Process": 2082,
      "siredAngle": 2083,
      "IT": 2084,
      "Ignore": 2085,
      "md": 2086,
      "(),": 2087,
      "ounds": 2088,
      "Ġcolor": 2089,
      "check": 2090,
      "Ġplayers": 2091,
      "Ġ{};": 2092,
      "Tire": 2093,
      "ĠMouse": 2094,
      "Ð°": 2095,
      "ancel": 2096,
      "Variables": 2097,
      "ape": 2098,
      "irt": 2099,
      "Ġsteer": 2100,
      "Keys": 2101,
      "Ġicon": 2102,
      "PGS": 2103,
      "ĠSteering": 2104,
      "unge": 2105,
      "remove": 2106,
      "rib": 2107,
      "Ġres": 2108,
      "Ġover": 2109,
      "struct": 2110,
      "Charg": 2111,
      "erson": 2112,
      "ines": 2113,
      "RunService": 2114,
      "middle": 2115,
      "etween": 2116,
      "ates": 2117,
      "esh": 2118,
      "Seg": 2119,
      "compiled": 2120,
      "RR": 2121,
      "ĠCamera": 2122,
      "Ġratio": 2123,
      "with": 2124,
      "ĊĊĊ": 2125,
      "ĠDecompiled": 2126,
      "Ð¾": 2127,
      "();": 2128,
      "Ġmatch": 2129,
      "OfClass": 2130,
      "Ġprops": 2131,
      "ĠSyn": 2132,
      "ants": 2133,
      "LT": 2134,
      "Aim": 2135,
      "edShot": 2136,
      "Ġdown": 2137,
      "ĠSignal": 2138,
      "Ġhor": 2139,
      "Anims": 2140,
      "apse": 2141,
      "ChargedShot": 2142,
      "PS": 2143,
      "Ġbut": 2144,
      "Advance": 2145,
      "TableValue": 2146,
      "ressTableValue": 2147,
      "compiler": 2148,
      "ĠSynapse": 2149,
      "ĠPlayers": 2150,
      "Ġeng": 2151,
      "ollow": 2152,
      "==_": 2153,
      "Ġdecompiler": 2154,
      "ole": 2155,
      "Gamepad": 2156,
      "*_": 2157,
      "PlayerGui": 2158,
      "ĠpropertyName": 2159,
      "ransparency": 2160,
      "Thumbstick": 2161,
      "terTable": 2162,
      "AlterTable": 2163,
      "ChargeLevel": 2164,
      "ChargeAlterTable": 2165,
      "ChargedShotAdvance": 2166,
      "ChargedShotAdvanceEnabled": 2167,
      "ier": 2168,
      "ution": 2169,
      "assis": 2170,
      "Ġusing": 2171,
      "Smo": 2172,
      "Tq": 2173,
      "Ġshifting": 2174,
      "-<": 2175,
      "Zoom": 2176,
      "Ġresp": 2177,
      "lights": 2178,
      "ĠAdmin": 2179,
      "AD": 2180,
      "Ġorig": 2181,
      "ĠBase": 2182,
      "ĠDampening": 2183,
      "ĠAddressTableValue": 2184,
      "FR": 2185,
      "Bright": 2186,
      "ression": 2187,
      "ĠTravel": 2188,
      "ĠFunctions": 2189,
      "kn": 2190,
      "rompt": 2191,
      "Phy": 2192,
      "ling": 2193,
      "rel": 2194,
      "Ġragdoll": 2195,
      "Power": 2196,
      "Ġtrans": 2197,
      "Touched": 2198,
      "Ġhorizontal": 2199,
      "AV": 2200,
      "Save": 2201,
      "Ġ\\": 2202,
      "Items": 2203,
      "02": 2204,
      "09": 2205,
      "Gun": 2206,
      "lobal": 2207,
      "Ġno": 2208,
      "ĊĉĉĉĉĊĉĉĉ": 2209,
      "Step": 2210,
      "rigin": 2211,
      "creator": 2212,
      "Contlr": 2213,
      "Ġcallback": 2214,
      "Bubble": 2215,
      "ral": 2216,
      "degrees": 2217,
      "crement": 2218,
      "-_": 2219,
      "66": 2220,
      "ics": 2221,
      "Spring": 2222,
      "instances": 2223,
      "very": 2224,
      "sical": 2225,
      "Ġ}": 2226,
      "ĊĉĊĉ": 2227,
      "Ġmessage": 2228,
      "Cam": 2229,
      "tip": 2230,
      "tostring": 2231,
      "Access": 2232,
      "Filter": 2233,
      "API": 2234,
      "ĠForce": 2235,
      "inish": 2236,
      "Ġcre": 2237,
      "rap": 2238,
      "ClutchOn": 2239,
      "Rate": 2240,
      "tension": 2241,
      "disconnect": 2242,
      "bserv": 2243,
      "Incline": 2244,
      "ha": 2245,
      "ally": 2246,
      "0000": 2247,
      "ĠIcon": 2248,
      "aved": 2249,
      "oost": 2250,
      "utral": 2251,
      "ision": 2252,
      "currentAnim": 2253,
      "WsBone": 2254,
      "Default": 2255,
      "rottle": 2256,
      "BackgroundTransparency": 2257,
      "within": 2258,
      "GBrake": 2259,
      "just": 2260,
      "ĠClutch": 2261,
      "ensation": 2262,
      "lugins": 2263,
      "code": 2264,
      "DesiredAngle": 2265,
      "players": 2266,
      "ĊĠĠĠĠĠĠĠĠĠĠĠĠĠĠĠ": 2267,
      "BasePart": 2268,
      "hav": 2269,
      "limbcollider": 2270,
      "Ġtw": 2271,
      "Ġmy": 2272,
      "ĠCreate": 2273,
      "ialog": 2274,
      "Rig": 2275,
      "ample": 2276,
      "plate": 2277,
      "eta": 2278,
      "ĠHitPart": 2279,
      "Ġmodel": 2280,
      "OB": 2281,
      "Weapon": 2282,
      "cur": 2283,
      "Description": 2284,
      "Stepped": 2285,
      "outine": 2286,
      "env": 2287,
      "res": 2288,
      "Stiffness": 2289,
      "PointZero": 2290,
      "173": 2291,
      "jectile": 2292,
      "36": 2293,
      "Normal": 2294,
      "errain": 2295,
      "ource": 2296,
      "Black": 2297,
      "sicalProperties": 2298,
      "havi": 2299,
      "World": 2300,
      "ouch": 2301,
      "SE": 2302,
      "Rotation": 2303,
      "Context": 2304,
      "ĠRoblox": 2305,
      "Ġprev": 2306,
      "Ġnow": 2307,
      "Ġret": 2308,
      "ĠNOT": 2309,
      "Cross": 2310,
      "Use": 2311,
      "rbxassetid": 2312,
      "Ġdoes": 2313,
      "ĠRaycastResult": 2314,
      "Ġbrake": 2315,
      "ĠUI": 2316,
      "Ġargument": 2317,
      "ctor": 2318,
      "RemoteEvent": 2319,
      "ModTable": 2320,
      ",_": 2321,
      "Fall": 2322,
      "UR": 2323,
      "lood": 2324,
      "OV": 2325,
      "Width": 2326,
      "Ġ\"\"": 2327,
      "Ġbefore": 2328,
      "Ġmouse": 2329,
      "------------------------------------------------------------------------------------------------": 2330,
      "Scripts": 2331,
      "Ro": 2332,
      "break": 2333,
      "handler": 2334,
      "Ġx": 2335,
      "repeat": 2336,
      "Ġfast": 2337,
      "GetPlayer": 2338,
      "Points": 2339,
      "ost": 2340,
      "Ġ----": 2341,
      "left": 2342,
      "After": 2343,
      "GetDescendants": 2344,
      "work": 2345,
      "resh": 2346,
      "Ġwas": 2347,
      "ollision": 2348,
      "quip": 2349,
      "warn": 2350,
      "Ġpath": 2351,
      "Int": 2352,
      "SoundId": 2353,
      "ility": 2354,
      "force": 2355,
      "ĠinputObject": 2356,
      "button": 2357,
      "Ġ9": 2358,
      "Ġspec": 2359,
      "Constraint": 2360,
      "ĠRear": 2361,
      "ĠOFF": 2362,
      "ImageTransparency": 2363,
      "Press": 2364,
      "UDim": 2365,
      "bin": 2366,
      "thing": 2367,
      "Ġgear": 2368,
      "log": 2369,
      "Ġred": 2370,
      "arger": 2371,
      "IdleRPM": 2372,
      "Ġdirection": 2373,
      "Ġapp": 2374,
      "Commands": 2375,
      "Boost": 2376,
      "task": 2377,
      "ĠUn": 2378,
      "Ġalso": 2379,
      "Ġcor": 2380,
      "),{": 2381,
      "ersion": 2382,
      "Ġcalled": 2383,
      "Ġrespon": 2384,
      "40": 2385,
      "\\\\": 2386,
      "itor": 2387,
      "imm": 2388,
      "aste": 2389,
      "rigger": 2390,
      "ĠCheck": 2391,
      "CTION": 2392,
      "cceler": 2393,
      "lue": 2394,
      "Ġsc": 2395,
      "Ġgui": 2396,
      ")/(": 2397,
      "LOX": 2398,
      "rit": 2399,
      "sm": 2400,
      "Ġconfig": 2401,
      "OBLOX": 2402,
      "any": 2403,
      "sets": 2404,
      "Disabled": 2405,
      "Ġsteering": 2406,
      "DZone": 2407,
      "Ġcenter": 2408,
      "ĠTO": 2409,
      "ĠRun": 2410,
      "Ð¸": 2411,
      "Ġgroup": 2412,
      "returns": 2413,
      "Ġtorso": 2414,
      "she": 2415,
      "Modules": 2416,
      "ĠVariables": 2417,
      "Sharp": 2418,
      "fenv": 2419,
      "Ġdialog": 2420,
      "...)": 2421,
      "Slip": 2422,
      "Ġhum": 2423,
      "Ġhead": 2424,
      "Wheels": 2425,
      "lasticity": 2426,
      "500": 2427,
      "72": 2428,
      "imit": 2429,
      "Ġwithin": 2430,
      "runAnimTrack": 2431,
      "984": 2432,
      "FX": 2433,
      "vas": 2434,
      "Ġtext": 2435,
      "ĠLe": 2436,
      "Detail": 2437,
      "Async": 2438,
      "SS": 2439,
      "ele": 2440,
      "Ġtag": 2441,
      "Ġconnection": 2442,
      "Began": 2443,
      "Removing": 2444,
      "Activated": 2445,
      "CE": 2446,
      "yst": 2447,
      "Inv": 2448,
      "Ġdistance": 2449,
      "module": 2450,
      "ures": 2451,
      "Ġmultiplier": 2452,
      "86": 2453,
      "arch": 2454,
      "aypoint": 2455,
      "instanceNames": 2456,
      "Ġdialogue": 2457,
      "Ġint": 2458,
      "Ġaut": 2459,
      "ĠType": 2460,
      "ystem": 2461,
      "Over": 2462,
      "Unit": 2463,
      "Stick": 2464,
      "Keyframe": 2465,
      "49": 2466,
      "Explosion": 2467,
      "Ġresponse": 2468,
      "200": 2469,
      "Cool": 2470,
      "Line": 2471,
      "ifts": 2472,
      "less": 2473,
      "------------------------------------------------------------------------": 2474,
      "gine": 2475,
      "ĠKey": 2476,
      "ations": 2477,
      "Form": 2478,
      "Texture": 2479,
      "Spawn": 2480,
      "MoveVector": 2481,
      "Vert": 2482,
      "Window": 2483,
      "ĊĠĠĠĠĠĠĠĠĠĠĠĠĠĠĠĠ": 2484,
      "Ġafter": 2485,
      "ĠDO": 2486,
      "inalDrive": 2487,
      "Mesh": 2488,
      "server": 2489,
      "bservable": 2490,
      "ĠMake": 2491,
      "ContextAction": 2492,
      "47": 2493,
      "gist": 2494,
      "ong": 2495,
      "lete": 2496,
      "onster": 2497,
      "Ġtem": 2498,
      "Ġbetween": 2499,
      "ull": 2500,
      "ĠROBLOX": 2501,
      "[\"#": 2502,
      "sive": 2503,
      "shift": 2504,
      "HU": 2505,
      "Kick": 2506,
      "PT": 2507,
      "ber": 2508,
      "ĠStart": 2509,
      "peaker": 2510,
      "hp": 2511,
      "Ġemote": 2512,
      "Ð½": 2513,
      "=\"": 2514,
      "Match": 2515,
      "twe": 2516,
      "uild": 2517,
      "------": 2518,
      "Ġbutton": 2519,
      "ĠBrickColor": 2520,
      "quest": 2521,
      "Radius": 2522,
      "DO": 2523,
      "Wear": 2524,
      "do": 2525,
      "Ġab": 2526,
      "calcul": 2527,
      "Ġfirst": 2528,
      "ĠAPI": 2529,
      "AbsoluteSize": 2530,
      "56": 2531,
      "Ġref": 2532,
      "format": 2533,
      "Ġidx": 2534,
      "42": 2535,
      "Cor": 2536,
      "Free": 2537,
      "count": 2538,
      "Ġam": 2539,
      "erent": 2540,
      "Ġsound": 2541,
      "ular": 2542,
      "Ġheight": 2543,
      "GetModule": 2544,
      "Ġkeys": 2545,
      "48": 2546,
      "Ġincl": 2547,
      "Ġtouch": 2548,
      "Shake": 2549,
      "ĠFront": 2550,
      "299": 2551,
      "be": 2552,
      "Ġchat": 2553,
      "ĠDefault": 2554,
      "cceleration": 2555,
      "Ġsuccess": 2556,
      "CF": 2557,
      "If": 2558,
      "item": 2559,
      "side": 2560,
      "sheath": 2561,
      "DS": 2562,
      "El": 2563,
      "ans": 2564,
      "Ġdon": 2565,
      "ĠText": 2566,
      "Ġdev": 2567,
      "CameraType": 2568,
      "AddItem": 2569,
      "Ġexp": 2570,
      ":::": 2571,
      "uck": 2572,
      "ved": 2573,
      "Ġold": 2574,
      "Args": 2575,
      "Ċĉĉĉĉĉĉĉĉĉĉ": 2576,
      "command": 2577,
      "this": 2578,
      "ĊĉĉĉĉĊĉĉ": 2579,
      "raw": 2580,
      "Ġbrick": 2581,
      "ĠIm": 2582,
      "Arrow": 2583,
      "Jumping": 2584,
      "Send": 2585,
      "event": 2586,
      "oin": 2587,
      "the": 2588,
      "Ġmethod": 2589,
      "ĠinputState": 2590,
      "RevBounce": 2591,
      "Find": 2592,
      "door": 2593,
      "().": 2594,
      "ie": 2595,
      "state": 2596,
      "Ġsure": 2597,
      "Ġforward": 2598,
      "Ġ30": 2599,
      "Profile": 2600,
      "havior": 2601,
      "Special": 2602,
      "Ġ%": 2603,
      "ating": 2604,
      "ĠIN": 2605,
      "Ġsetting": 2606,
      "http": 2607,
      "Panel": 2608,
      "RA": 2609,
      "huge": 2610,
      "props": 2611,
      "workspace": 2612,
      "amin": 2613,
      "Ġcom": 2614,
      "Ġpromise": 2615,
      "ĠScript": 2616,
      "Ġfunctions": 2617,
      "Ġ+=": 2618,
      "Compress": 2619,
      "TH": 2620,
      "onis": 2621,
      "itle": 2622,
      "ameter": 2623,
      "etr": 2624,
      "rio": 2625,
      "Ġcodes": 2626,
      "Ġinstead": 2627,
      "Tag": 2628,
      "ĉĊĉ": 2629,
      "Ġparts": 2630,
      "ĠcameraSubject": 2631,
      "ious": 2632,
      "Sharpness": 2633,
      "brake": 2634,
      "pro": 2635,
      "ĠMaid": 2636,
      "Ġton": 2637,
      "Ġclose": 2638,
      "CharacterAdded": 2639,
      "amping": 2640,
      "walk": 2641,
      "Ġ80": 2642,
      "Ġlock": 2643,
      "Theme": 2644,
      "ĠAll": 2645,
      "Ġpcall": 2646,
      "Ġaction": 2647,
      "Debounce": 2648,
      "))/": 2649,
      "Ġsetmetatable": 2650,
      "ĠTorque": 2651,
      "Ġtonumber": 2652,
      "1000": 2653,
      "ÑĤ": 2654,
      "Ġ;": 2655,
      "Ġli": 2656,
      "Ġidle": 2657,
      "Brightness": 2658,
      "App": 2659,
      "ĠĊĉĉ": 2660,
      "start": 2661,
      "imum": 2662,
      "ason": 2663,
      "ignore": 2664,
      "parent": 2665,
      "Ġroot": 2666,
      "Hinge": 2667,
      "cor": 2668,
      "dated": 2669,
      "Ġclean": 2670,
      "spawn": 2671,
      "Ġgradient": 2672,
      "InputBegan": 2673,
      "Space": 2674,
      "MakeWeld": 2675,
      "Li": 2676,
      "Ġtrack": 2677,
      "Ġoption": 2678,
      "ven": 2679,
      "enetr": 2680,
      "Stance": 2681,
      "Ġinstances": 2682,
      "Human": 2683,
      "pose": 2684,
      "Reverse": 2685,
      "ĠVR": 2686,
      "LaserTrail": 2687,
      "91": 2688,
      "CK": 2689,
      "dition": 2690,
      "var": 2691,
      "Ġfind": 2692,
      "Ġ15": 2693,
      "Ġbelow": 2694,
      ",#": 2695,
      "rav": 2696,
      "Ġeach": 2697,
      "IL": 2698,
      "ÑĢ": 2699,
      "ink": 2700,
      "root": 2701,
      "Ġinitial": 2702,
      "conds": 2703,
      "actor": 2704,
      "CurveMult": 2705,
      "Origin": 2706,
      "Range": 2707,
      "message": 2708,
      "ĠModule": 2709,
      "elta": 2710,
      "ĠTable": 2711,
      "ĠAut": 2712,
      "Loader": 2713,
      "amina": 2714,
      "Ġhere": 2715,
      "85": 2716,
      "ock": 2717,
      "Ġpos": 2718,
      "Ġdiff": 2719,
      "Env": 2720,
      "camera": 2721,
      "Ġrot": 2722,
      "ĠButton": 2723,
      "Ġevery": 2724,
      "Ġtypeof": 2725,
      ")+": 2726,
      "Dot": 2727,
      "ĠYOU": 2728,
      "Axle": 2729,
      "!!": 2730,
      "Sn": 2731,
      "gc": 2732,
      "Ġpaste": 2733,
      "ĠRE": 2734,
      "AWD": 2735,
      "ding": 2736,
      "iction": 2737,
      "plement": 2738,
      "ĠIs": 2739,
      "Stats": 2740,
      "igh": 2741,
      "ulate": 2742,
      "leted": 2743,
      "ĠLocal": 2744,
      "ccel": 2745,
      "04": 2746,
      "Middle": 2747,
      "None": 2748,
      "action": 2749,
      "ural": 2750,
      "ĠTHE": 2751,
      "ĠSpeed": 2752,
      "Made": 2753,
      "ĠLeg": 2754,
      "tqPlot": 2755,
      "ified": 2756,
      "edit": 2757,
      "ĠCoil": 2758,
      "Ġhandler": 2759,
      "Ġsettings": 2760,
      "ĠGame": 2761,
      "Icons": 2762,
      "Segment": 2763,
      "Gyro": 2764,
      "Ġwalk": 2765,
      "Ġrank": 2766,
      "my": 2767,
      "reshold": 2768,
      "ac": 2769,
      "ĠZ": 2770,
      "nee": 2771,
      "ĠNew": 2772,
      "Chassis": 2773,
      "Ġ255": 2774,
      "175": 2775,
      "Thread": 2776,
      "ĉĉĉĉĉĉĉĉĉĉĉĉĉĉĉĉĉĉĉĉĉĉĉĉĉĉĉĉĉĉĉĉĉĉĉĉĉĉĉĉĉĉĉĉĉĉĉĉĉĉĉĉĉĉĉĉĉĉĉĉĉĉĉĉĉĉĉĉĉĉĉĉĉĉĉĉĉĉĉĉĉĉĉĉĉĉĉĉĉĉĉĉĉĉĉĉĉĉĉĉĉĉĉĉĉĉĉĉĉĉĉĉĉĉĉĉĉĉĉĉĉĉĉĉĉĉĉĉ": 2777,
      "ĠUserInputService": 2778,
      "Ġthrottle": 2779,
      "TweenService": 2780,
      "ssed": 2781,
      "Ġsame": 2782,
      "velocity": 2783,
      "GetPlayers": 2784,
      "Selection": 2785,
      "Second": 2786,
      "Cy": 2787,
      "diff": 2788,
      "wd": 2789,
      "Stand": 2790,
      "ĠPre": 2791,
      "GE": 2792,
      "Ġthreshold": 2793,
      "lies": 2794,
      "Exec": 2795,
      "Ġlevel": 2796,
      "Delta": 2797,
      "WeaponData": 2798,
      "entation": 2799,
      "Enable": 2800,
      "_/___/": 2801,
      "ĠComponent": 2802,
      "Fade": 2803,
      "jump": 2804,
      "Ġback": 2805,
      "Vertical": 2806,
      "06": 2807,
      "HT": 2808,
      "Ġcondition": 2809,
      "(_-<": 2810,
      "----------------------------------------------------------------------------------------": 2811,
      "295": 2812,
      "07": 2813,
      "Field": 2814,
      "Que": 2815,
      "fin": 2816,
      "ĠDataStore": 2817,
      "result": 2818,
      "Ġhigher": 2819,
      "ages": 2820,
      "Ġdeter": 2821,
      "Thickness": 2822,
      "assert": 2823,
      "ware": 2824,
      "FromCharacter": 2825,
      "gister": 2826,
      "LA": 2827,
      "Ġag": 2828,
      "ĠServer": 2829,
      "osmet": 2830,
      "assed": 2831,
      "--[[**": 2832,
      "LockThres": 2833,
      "DiffSlip": 2834,
      "DiffLockThres": 2835,
      "DiffSlipThres": 2836,
      "\"};": 2837,
      "Flag": 2838,
      "wise": 2839,
      "ĠPart": 2840,
      "Ġdecay": 2841,
      "ĠPer": 2842,
      "CurrentAngle": 2843,
      "ams": 2844,
      "Ġ-->": 2845,
      "});": 2846,
      "**--]]": 2847,
      "KeyframeHandler": 2848,
      "osmetic": 2849,
      "180": 2850,
      "31": 2851,
      "UE": 2852,
      "anitor": 2853,
      "Read": 2854,
      "Loaded": 2855,
      "Ġtune": 2856,
      "elp": 2857,
      "Init": 2858,
      "Ġ150": 2859,
      "Master": 2860,
      "ized": 2861,
      "avig": 2862,
      "39": 2863,
      "Accel": 2864,
      "Block": 2865,
      "Person": 2866,
      "lta": 2867,
      "Ġme": 2868,
      "active": 2869,
      "Died": 2870,
      "ealth": 2871,
      "sics": 2872,
      "uper": 2873,
      "Playing": 2874,
      "Ġits": 2875,
      "Effects": 2876,
      "71": 2877,
      "WHE": 2878,
      "Ġla": 2879,
      "-------": 2880,
      "Ġpri": 2881,
      "Ġsignal": 2882,
      "Ġmust": 2883,
      "Adjust": 2884,
      "Heat": 2885,
      "lease": 2886,
      "Ġdist": 2887,
      "MaxVelocity": 2888,
      "Order": 2889,
      "MasterControl": 2890,
      "te": 2891,
      "Ġpeak": 2892,
      "gun": 2893,
      "ĠAnim": 2894,
      "Ġcast": 2895,
      "Ġthem": 2896,
      "ĠOption": 2897,
      "ĠLoad": 2898,
      "Axis": 2899,
      "WHEE": 2900,
      "Cre": 2901,
      "TP": 2902,
      "Ġclass": 2903,
      "Ġfaster": 2904,
      "sheathSound": 2905,
      "Give": 2906,
      "Delay": 2907,
      "Unbind": 2908,
      "Terrain": 2909,
      "aint": 2910,
      "Status": 2911,
      "agement": 2912,
      "MaxTorque": 2913,
      "Ġmem": 2914,
      "ĠCurve": 2915,
      "ĠAt": 2916,
      "Ġcontain": 2917,
      "Ġlook": 2918,
      "avigation": 2919,
      "erGui": 2920,
      "ify": 2921,
      "Ġsub": 2922,
      "KeyDown": 2923,
      "Ġanchor": 2924,
      "RightLeg": 2925,
      "Array": 2926,
      "54": 2927,
      "SP": 2928,
      "TR": 2929,
      "ging": 2930,
      "ĠAnti": 2931,
      ")),": 2932,
      "ĠShifts": 2933,
      "Ġkn": 2934,
      "enetration": 2935,
      "Ġext": 2936,
      "sounds": 2937,
      "Temp": 2938,
      "ictionary": 2939,
      "87": 2940,
      "Drag": 2941,
      "Kill": 2942,
      "ĠTouch": 2943,
      "Lighting": 2944,
      "Ġmanual": 2945,
      "SET": 2946,
      "val": 2947,
      "forvar": 2948,
      "TransModes": 2949,
      "Copy": 2950,
      "Eq": 2951,
      "ĊĊĉĉĉĉĉ": 2952,
      "duct": 2953,
      "TweenPosition": 2954,
      "Canvas": 2955,
      ":_": 2956,
      "Tol": 2957,
      "lus": 2958,
      "Ñģ": 2959,
      "stats": 2960,
      "Ġhow": 2961,
      "EqPoint": 2962,
      "\");": 2963,
      "Reload": 2964,
      "Arg": 2965,
      "MovementMode": 2966,
      "ful": 2967,
      "rp": 2968,
      "Ġelse": 2969,
      "Ġthese": 2970,
      "ĠLast": 2971,
      "OutTorque": 2972,
      "Ġcomponent": 2973,
      "Mark": 2974,
      "fwspeed": 2975,
      "rwspeed": 2976,
      "wcount": 2977,
      "():": 2978,
      "ĠCurrent": 2979,
      "ĠAm": 2980,
      "Scroll": 2981,
      "Ġstruct": 2982,
      "Quad": 2983,
      "Co": 2984,
      "aist": 2985,
      "Ġ()": 2986,
      "Ġthey": 2987,
      "thumbstick": 2988,
      "ayout": 2989,
      "Ġuntil": 2990,
      "Ġanimation": 2991,
      "Ġobjs": 2992,
      "CON": 2993,
      "Waypoint": 2994,
      "Ġos": 2995,
      "ĠGear": 2996,
      "ifier": 2997,
      "Ġnum": 2998,
      "Ġacceleration": 2999,
      "ĠSC": 3000,
      "ĠWorkspace": 3001,
      "Ġeffect": 3002,
      "17364": 3003,
      "bel": 3004,
      "pcall": 3005,
      "caling": 3006,
      "Ġind": 3007,
      "ĠBullet": 3008,
      "ĠConfig": 3009,
      "////////////////////////////////": 3010,
      "Emitter": 3011,
      "Ġexists": 3012,
      ")-": 3013,
      "92": 3014,
      "Car": 3015,
      "[_": 3016,
      "oke": 3017,
      "Ġtq": 3018,
      "wner": 3019,
      "Ġenabled": 3020,
      "Admins": 3021,
      "##": 3022,
      "Plugins": 3023,
      "attack": 3024,
      "Ġslider": 3025,
      "ĠABS": 3026,
      "ensit": 3027,
      "LeftLeg": 3028,
      "Ġcontroller": 3029,
      "rello": 3030,
      "Queue": 3031,
      "Random": 3032,
      "Ġ60": 3033,
      "Inter": 3034,
      "ĠTH": 3035,
      "PlayerData": 3036,
      "))*": 3037,
      "Ġleft": 3038,
      "ĠArray": 3039,
      "Linear": 3040,
      "AB": 3041,
      "ict": 3042,
      "ĠData": 3043,
      "info": 3044,
      "Ġwhat": 3045,
      "RevDecay": 3046,
      ".__": 3047,
      "03": 3048,
      "59": 3049,
      "Beam": 3050,
      "Len": 3051,
      "sw": 3052,
      "etwork": 3053,
      "ĠSPS": 3054,
      "ĠRatios": 3055,
      "RightArm": 3056,
      "LoadAnimation": 3057,
      "Content": 3058,
      "smos": 3059,
      "Format": 3060,
      "ike": 3061,
      "iation": 3062,
      "Ġtbl": 3063,
      "Ġthere": 3064,
      "Ġca": 3065,
      "ĠCan": 3066,
      "ĠSe": 3067,
      "InputEnded": 3068,
      "FindFirstChildOfClass": 3069,
      "UNE": 3070,
      "Option": 3071,
      "vt": 3072,
      "Ġ75": 3073,
      "Ġcl": 3074,
      "Spot": 3075,
      "ĠTargetHumanoid": 3076,
      "imming": 3077,
      "Damping": 3078,
      "Menu": 3079,
      "Neck": 3080,
      "mall": 3081,
      "xy": 3082,
      "les": 3083,
      "Params": 3084,
      "Ġmay": 3085,
      "Ġbody": 3086,
      "Scene": 3087,
      "StringValue": 3088,
      "Neutral": 3089,
      "Pack": 3090,
      "bound": 3091,
      "ingle": 3092,
      "destroy": 3093,
      "Inc": 3094,
      "Ġinter": 3095,
      "Ġdamage": 3096,
      "LeftArm": 3097,
      "ImageColor": 3098,
      "LTUNE": 3099,
      "98480": 3100,
      "WHEELTUNE": 3101,
      "color": 3102,
      "mb": 3103,
      "Ġtest": 3104,
      "Ġpassed": 3105,
      "ĠWh": 3106,
      "ĠInitial": 3107,
      "Locked": 3108,
      "ContextActionService": 3109,
      "by": 3110,
      "IconController": 3111,
      "store": 3112,
      "Ġfire": 3113,
      "ĠReturns": 3114,
      "CoreGui": 3115,
      "RevAccel": 3116,
      "Corner": 3117,
      "osmeticBullet": 3118,
      "`,": 3119,
      "tab": 3120,
      "ivity": 3121,
      "ĠVisible": 3122,
      "ĠcurrentAnim": 3123,
      "Removed": 3124,
      "Ð¾Ð": 3125,
      "Ġdeviation": 3126,
      "Ġagain": 3127,
      ",.": 3128,
      "gen": 3129,
      "ream": 3130,
      "Ġsome": 3131,
      "-----------------": 3132,
      "AddLog": 3133,
      "ugh": 3134,
      "Com": 3135,
      "bers": 3136,
      "ses": 3137,
      "ization": 3138,
      "ĠAN": 3139,
      "ĉĉĉĉĉĉĉĉĉĉĉ": 3140,
      "ĠWeight": 3141,
      "Ġwhere": 3142,
      "Projectile": 3143,
      "ĠExtension": 3144,
      "SlashSound": 3145,
      "Do": 3146,
      "SC": 3147,
      "Saved": 3148,
      "unch": 3149,
      "ĊĉĉĉĉĉĊĉĉĉĉ": 3150,
      "ĠRight": 3151,
      "TextBox": 3152,
      "Allow": 3153,
      "model": 3154,
      "ensitivity": 3155,
      "IG": 3156,
      "Return": 3157,
      "base": 3158,
      "Look": 3159,
      "Logs": 3160,
      "Climb": 3161,
      "ateral": 3162,
      "Smooth": 3163,
      ")]": 3164,
      "ĠReplicatedStorage": 3165,
      "Quint": 3166,
      "ribute": 3167,
      "beat": 3168,
      "artbeat": 3169,
      "Shirt": 3170,
      "ĠObservable": 3171,
      "Ġrequired": 3172,
      "RIPT": 3173,
      "Promise": 3174,
      "Rect": 3175,
      "TI": 3176,
      "ĠInput": 3177,
      "ether": 3178,
      "Ġvalid": 3179,
      "Shoot": 3180,
      "Ġloop": 3181,
      "Blade": 3182,
      "----------------------------------------------------------------------------------------------------": 3183,
      "Lunge": 3184,
      "desmos": 3185,
      "Ġplay": 3186,
      "Ġass": 3187,
      "And": 3188,
      "ClutchTol": 3189,
      "calculator": 3190,
      "Blood": 3191,
      "lid": 3192,
      "cept": 3193,
      "Ġfollow": 3194,
      "ĠNumber": 3195,
      "Ġobjects": 3196,
      "Connections": 3197,
      "Ġengagement": 3198,
      "fFD": 3199,
      "gh": 3200,
      "InHand": 3201,
      "Ġstable": 3202,
      "ĠMy": 3203,
      "________": 3204,
      "Pressing": 3205,
      "(...)": 3206,
      "43": 3207,
      "Prompt": 3208,
      "ĠĠĠĠĠĠĠĠĠĠĠĠĠĠĠ": 3209,
      "ssion": 3210,
      "irect": 3211,
      "udio": 3212,
      "ĠĠĠĠĠĠĠĠĠĠĠĠĠĠĠĠĠĠĠĠĠĠĠĠĠĠĠĠĠĠĠĠĠĠĠĠĠĠĠĠĠĠĠĠĠĠĠĠĠĠĠĠĠĠĠĠĠĠĠĠĠĠĠĠĠĠĠĠĠĠĠĠĠĠĠĠĠĠĠĠĠĠĠĠĠĠĠĠĠĠĠĠĠĠĠĠĠĠĠĠĠĠĠĠĠĠĠĠĠĠĠĠĠĠĠĠĠĠĠĠĠĠĠĠĠĠĠĠĠĠĠĠĠĠĠĠĠĠĠĠĠĠĠĠĠĠĠĠĠĠĠĠĠĠĠĠĠĠĠĠĠĠĠĠĠĠĠĠĠĠĠĠĠĠĠĠĠĠĠĠĠĠĠĠĠĠĠĠĠĠĠĠĠĠĠĠĠĠĠĠĠĠĠĠĠĠĠĠĠĠĠĠĠĠĠĠĠĠĠĠĠĠĠĠĠĠĠĠĠĠĠĠĠĠĠĠĠĠĠĠĠĠĠĠĠĠĠĠĠĠĠĠĠĠĠĠĠĠĠĠĠĠĠĠĠĠĠĠĠĠĠĠĠĠĠĠĠĠĠĠĠĠĠĠĠĠĠĠĠĠĠĠĠĠĠĠĠĠĠĠĠĠĠĠĠĠĠĠĠĠĠĠĠĠĠĠĠĠĠĠĠĠĠĠĠĠĠĠĠĠĠĠĠĠĠĠĠĠĠĠĠĠĠĠĠĠĠĠĠĠĠĠĠĠĠĠĠĠĠĠĠĠĠĠĠĠĠĠĠĠĠĠĠĠĠĠĠĠĠĠĠĠĠĠĠĠĠĠĠĠĠĠĠĠĠĠĠĠĠĠĠĠĠĠĠĠĠĠĠĠĠĠĠĠĠĠĠĠĠĠĠĠĠĠĠĠĠĠĠĠĠĠĠĠĠĠĠĠĠĠĠĠĠĠĠĠĠĠĠĠĠĠĠĠĠĠĠĠĠĠĠĠĠĠĠĠĠĠĠĠĠĠĠĠĠĠĠĠĠĠĠĠĠĠĠĠĠĠĠĠĠĠĠĠĠĠĠĠĠĠĠĠĠĠĠĠĠĠĠĠĠĠ": 3213,
      "lope": 3214,
      "cket": 3215,
      "ĠSlip": 3216,
      "ĠLength": 3217,
      "Keypoint": 3218,
      "ĠPhy": 3219,
      "inputObject": 3220,
      "Ġ...)": 3221,
      "46": 3222,
      "Av": 3223,
      "ED": 3224,
      "Multiplier": 3225,
      "dicator": 3226,
      "liders": 3227,
      "ias": 3228,
      "ĠAnimation": 3229,
      "ret": 3230,
      "Ġfront": 3231,
      "ĠDis": 3232,
      "points": 3233,
      "PeakSharpness": 3234,
      "SequenceKeypoint": 3235,
      "InclineComp": 3236,
      "57": 3237,
      "Equip": 3238,
      "ique": 3239,
      "Ġhttps": 3240,
      "Ġthan": 3241,
      "Ġcache": 3242,
      "maid": 3243,
      "Ġmaid": 3244,
      "Ġjump": 3245,
      "HUD": 3246,
      "ravity": 3247,
      "diffMult": 3248,
      "BOV": 3249,
      "Collision": 3250,
      "auge": 3251,
      "lit": 3252,
      "sing": 3253,
      "Ġfunc": 3254,
      "ĉĉĉĉĉ": 3255,
      "ected": 3256,
      "Dead": 3257,
      "Ġupward": 3258,
      "ĠTorso": 3259,
      "ĠControls": 3260,
      "Calls": 3261,
      "Ġlike": 3262,
      "Elasticity": 3263,
      "total": 3264,
      "ets": 3265,
      "ĠTCS": 3266,
      "ĠConnection": 3267,
      "Ġoutward": 3268,
      "Behavior": 3269,
      "Ġreference": 3270,
      "QUE": 3271,
      "Sensitivity": 3272,
      "Timer": 3273,
      "Ġcam": 3274,
      "Region": 3275,
      "'):": 3276,
      "ĠCompression": 3277,
      "Ġkick": 3278,
      "tagHumanoid": 3279,
      "Invoke": 3280,
      "ĠTHIS": 3281,
      "Factor": 3282,
      "ĠAngle": 3283,
      "imp": 3284,
      "ĠObject": 3285,
      "Attack": 3286,
      "Ġunder": 3287,
      "ĠTypes": 3288,
      "Ġmembers": 3289,
      "/?": 3290,
      "Fan": 3291,
      "bug": 3292,
      "eners": 3293,
      "ceil": 3294,
      "Ġ__": 3295,
      "Desc": 3296,
      "TextLabel": 3297,
      "CameraOffset": 3298,
      "ORQUE": 3299,
      "52": 3300,
      "Ban": 3301,
      "FinalDrive": 3302,
      "num": 3303,
      "err": 3304,
      "array": 3305,
      "leased": 3306,
      "ĠMan": 3307,
      "Spread": 3308,
      "Falling": 3309,
      "ĠSCRIPT": 3310,
      "UAL": 3311,
      "uff": 3312,
      "ars": 3313,
      "Ġav": 3314,
      "RenderStep": 3315,
      "fgc": 3316,
      "xis": 3317,
      "Ġtask": 3318,
      "cally": 3319,
      "ife": 3320,
      "olve": 3321,
      "OnServer": 3322,
      "Ext": 3323,
      "Physics": 3324,
      "inished": 3325,
      "Cancel": 3326,
      "Slope": 3327,
      "VR": 3328,
      "misc": 3329,
      "ng": 3330,
      "Ġ)": 3331,
      "Ġtab": 3332,
      "Ġlimbcollider": 3333,
      "UnsheathSound": 3334,
      "Ġmanip": 3335,
      "Blacklist": 3336,
      "Apply": 3337,
      "925": 3338,
      "create": 3339,
      "ms": 3340,
      "ving": 3341,
      "ymax": 3342,
      "ĠLuck": 3343,
      "BrakeForce": 3344,
      "currentMoveVector": 3345,
      "ready": 3346,
      "Ġredline": 3347,
      "Ġamount": 3348,
      "ymaxer": 3349,
      "ĠLuckymaxer": 3350,
      "82": 3351,
      "Clear": 3352,
      "FW": 3353,
      "Lateral": 3354,
      "Navigation": 3355,
      "stin": 3356,
      "LeftLean": 3357,
      "AU": 3358,
      "CH": 3359,
      "Foot": 3360,
      "Penetration": 3361,
      "âĸ": 3362,
      "alWith": 3363,
      "Ġbase": 3364,
      "Ance": 3365,
      "Ġ{[": 3366,
      "Ġview": 3367,
      "RightShoulder": 3368,
      "Ġlimit": 3369,
      "AutoShift": 3370,
      "aderstats": 3371,
      "ĠLeft": 3372,
      "alWithInput": 3373,
      "uth": 3374,
      "Ġmap": 3375,
      "----------------------------------------": 3376,
      "UpThresh": 3377,
      "OnRay": 3378,
      "Ġseconds": 3379,
      "AutoDown": 3380,
      "AutoUpThresh": 3381,
      "latform": 3382,
      "Ġoriginal": 3383,
      "Ġdetermin": 3384,
      "SpotLight": 3385,
      "âĸ¬": 3386,
      "AutoDownThresh": 3387,
      "73": 3388,
      "Network": 3389,
      "Sk": 3390,
      "Take": 3391,
      "ted": 3392,
      "rough": 3393,
      "ĠCal": 3394,
      "ATION": 3395,
      "Ġjoint": 3396,
      "ĠIconController": 3397,
      "ĠAmmo": 3398,
      "position": 3399,
      "unit": 3400,
      "edi": 3401,
      "Ġreal": 3402,
      "Ġrelative": 3403,
      "qual": 3404,
      "ĠChange": 3405,
      "animName": 3406,
      "size": 3407,
      "Ġbind": 3408,
      "Ġonce": 3409,
      "Playback": 3410,
      "Ġexec": 3411,
      "Ġtypes": 3412,
      "Ġactive": 3413,
      "bike": 3414,
      "Neon": 3415,
      "stination": 3416,
      "Bl": 3417,
      "SH": 3418,
      "func": 3419,
      "order": 3420,
      "Ġfinal": 3421,
      "ĠCUR": 3422,
      "ĠWeapon": 3423,
      "--//--//": 3424,
      "Threshold": 3425,
      "ĠPercent": 3426,
      "âĸ¬âĸ¬": 3427,
      "Ali": 3428,
      "My": 3429,
      "Title": 3430,
      "folder": 3431,
      "Ġprint": 3432,
      "ordin": 3433,
      "group": 3434,
      "itionTime": 3435,
      "Details": 3436,
      "(`": 3437,
      "OFF": 3438,
      "`.": 3439,
      "higher": 3440,
      "tw": 3441,
      "Ġturbo": 3442,
      "Ġincrement": 3443,
      "ĠHead": 3444,
      "Ġkickback": 3445,
      "You": 3446,
      "wheel": 3447,
      "Ġ&": 3448,
      "Ġsliders": 3449,
      "Ġweld": 3450,
      "maxTorque": 3451,
      "Tracking": 3452,
      "ChangedSignal": 3453,
      "ethods": 3454,
      "UNCTION": 3455,
      "Cyl": 3456,
      "Ġmanipulate": 3457,
      "Hole": 3458,
      "velo": 3459,
      "Replic": 3460,
      "ĠBE": 3461,
      "150": 3462,
      "2020": 3463,
      "WheelDensity": 3464,
      "TeamColor": 3465,
      "ternal": 3466,
      "Ġtemp": 3467,
      "fe": 3468,
      "hair": 3469,
      "ĠMagC": 3470,
      "ings": 3471,
      "Ġplace": 3472,
      "Ġnormal": 3473,
      "ĠRad": 3474,
      "ash": 3475,
      "usion": 3476,
      "ĠPGS": 3477,
      "ButtonR": 3478,
      "Ġjust": 3479,
      "GetPlayerFromCharacter": 3480,
      "Ġclosest": 3481,
      "Fr": 3482,
      "Fix": 3483,
      "FWsBone": 3484,
      "RWsBone": 3485,
      "signal": 3486,
      "Ġbeing": 3487,
      "Ġchanges": 3488,
      "Alignment": 3489,
      "AnchorOffset": 3490,
      "Ġotherwise": 3491,
      "Climbing": 3492,
      "=_": 3493,
      "By": 3494,
      "leg": 3495,
      "Ġsource": 3496,
      "ĠCopy": 3497,
      "Ġ12": 3498,
      "ĠSound": 3499,
      "GetProperty": 3500,
      "setting": 3501,
      "TextColor": 3502,
      "Ġlua": 3503,
      "OfView": 3504,
      "Template": 3505,
      "Close": 3506,
      "OM": 3507,
      "Sync": 3508,
      "cDZone": 3509,
      "cPanel": 3510,
      "zz": 3511,
      "next": 3512,
      "igure": 3513,
      "Ġ16": 3514,
      "Ġvisible": 3515,
      "spir": 3516,
      "ĠHow": 3517,
      "ĠVIS": 3518,
      "Particles": 3519,
      "Ġstructural": 3520,
      "ĠCURVE": 3521,
      "ĠVISUAL": 3522,
      "+((": 3523,
      "400": 3524,
      "fl": 3525,
      "prop": 3526,
      "Ġversion": 3527,
      "ther": 3528,
      "atically": 3529,
      "Viewport": 3530,
      "applies": 3531,
      "TORQUE": 3532,
      "pend": 3533,
      "rientation": 3534,
      "Ġmenu": 3535,
      "Ġinfo": 3536,
      "Ġ1000": 3537,
      "Ġ_____": 3538,
      "Ġhealth": 3539,
      "head": 3540,
      "Selected": 3541,
      "ĠMonster": 3542,
      "9396": 3543,
      "PhysicalProperties": 3544,
      "Turbo": 3545,
      "can": 3546,
      "default": 3547,
      "Ġ{},": 3548,
      "pping": 3549,
      "Vehicle": 3550,
      "Notice": 3551,
      "ĠPhysicalProperties": 3552,
      "GetPropertyChangedSignal": 3553,
      "ook": 3554,
      "Ġignore": 3555,
      "otes": 3556,
      "Ġglobal": 3557,
      "ĠDo": 3558,
      "Output": 3559,
      "ĠThickness": 3560,
      "Detector": 3561,
      "Ġcompensation": 3562,
      "LgcyDensity": 3563,
      "LowerTorso": 3564,
      "Ġvector": 3565,
      "Ġinclines": 3566,
      "Ġknow": 3567,
      "PlaybackSpeed": 3568,
      "*.": 3569,
      "ZR": 3570,
      "are": 3571,
      "ĠTo": 3572,
      "ĠSupport": 3573,
      "Ġrear": 3574,
      "Ġgun": 3575,
      "used": 3576,
      "LeftShoulder": 3577,
      "Ġalready": 3578,
      "Donor": 3579,
      "Ġgoal": 3580,
      "Num": 3581,
      "ection": 3582,
      "ope": 3583,
      "pha": 3584,
      "ended": 3585,
      "Ġcore": 3586,
      "ĠOver": 3587,
      "248": 3588,
      ")*(": 3589,
      "Rotate": 3590,
      "41": 3591,
      "cle": 3592,
      "ĠPosition": 3593,
      "Ġtotal": 3594,
      "ello": 3595,
      "Loading": 3596,
      "ĠOnly": 3597,
      "doorright": 3598,
      "ĠAutomatic": 3599,
      "69": 3600,
      "Tail": 3601,
      "ĠAn": 3602,
      "ĠModTable": 3603,
      "ride": 3604,
      "Ġplugin": 3605,
      "Ġtheme": 3606,
      "ĠvCharacter": 3607,
      "aking": 3608,
      "Ġarguments": 3609,
      "FieldOfView": 3610,
      "ccl": 3611,
      "attern": 3612,
      "ĠRegion": 3613,
      "Ġpercent": 3614,
      "ABLE": 3615,
      "*(_": 3616,
      "Sine": 3617,
      "uds": 3618,
      "utes": 3619,
      "Ġsubject": 3620,
      "Ġmsg": 3621,
      "Ġremove": 3622,
      "008": 3623,
      "Adonis": 3624,
      "Ġcont": 3625,
      "903": 3626,
      "RenderStepped": 3627,
      "OnServerEvent": 3628,
      "Pants": 3629,
      "gyro": 3630,
      "uo": 3631,
      "lack": 3632,
      "Construct": 3633,
      "settings": 3634,
      "Shell": 3635,
      "RightLean": 3636,
      "Smoke": 3637,
      "Ġtransmission": 3638,
      "Middleware": 3639,
      "GiveTask": 3640,
      "OFFSET": 3641,
      "'re": 3642,
      "Are": 3643,
      "HAT": 3644,
      "Trigger": 3645,
      "tor": 3646,
      "Ġent": 3647,
      "control": 3648,
      "ĠRLgcy": 3649,
      "Shape": 3650,
      "ĠFLgcy": 3651,
      "755": 3652,
      "Ġ|_": 3653,
      "Ġgetplr": 3654,
      "Ġprov": 3655,
      "Ġprevious": 3656,
      "/_": 3657,
      "Fake": 3658,
      "\"),": 3659,
      "ĠST": 3660,
      "Ġwhile": 3661,
      "Ġiff": 3662,
      "ĠMA": 3663,
      "rpm": 3664,
      "Follow": 3665,
      "Holder": 3666,
      "Wound": 3667,
      "body": 3668,
      "wrap": 3669,
      "Ġtransparency": 3670,
      "ornee": 3671,
      "Ġcount": 3672,
      "Ġweapon": 3673,
      "lice": 3674,
      "').": 3675,
      "urations": 3676,
      "({},": 3677,
      "erential": 3678,
      "dit": 3679,
      "give": 3680,
      "rc": 3681,
      "rove": 3682,
      "chat": 3683,
      "InOut": 3684,
      "Reached": 3685,
      "Ġbullet": 3686,
      "Ġrest": 3687,
      "Ġattachment": 3688,
      "Ġadded": 3689,
      "Ġworks": 3690,
      "Looped": 3691,
      "Coordin": 3692,
      "93969": 3693,
      "Clean": 3694,
      "Val": 3695,
      "hum": 3696,
      "ib": 3697,
      "track": 3698,
      "uzz": 3699,
      "Ġraw": 3700,
      "ĉĉĉĉĉĉĉ": 3701,
      "Ġmod": 3702,
      "Ġmuch": 3703,
      "Ġval": 3704,
      "ChildAdded": 3705,
      "Ġbeen": 3706,
      "ĠGUI": 3707,
      "ĠcarSeat": 3708,
      "ENT": 3709,
      "Topbar": 3710,
      "coroutine": 3711,
      "Cn": 3712,
      "Flip": 3713,
      "Next": 3714,
      "no": 3715,
      "tbl": 3716,
      "ĠĊĉĉĉ": 3717,
      "Ġ},": 3718,
      "angle": 3719,
      "urce": 3720,
      "pth": 3721,
      "Ġdirect": 3722,
      "ometh": 3723,
      "Dev": 3724,
      "Getting": 3725,
      "ĠFire": 3726,
      "source": 3727,
      "Ġcurrently": 3728,
      "Ġadmin": 3729,
      "Ġrespect": 3730,
      "haust": 3731,
      "ĠTableUtil": 3732,
      "omething": 3733,
      "AM": 3734,
      "Az": 3735,
      "IC": 3736,
      "hover": 3737,
      "rid": 3738,
      "Ent": 3739,
      "height": 3740,
      "PartOnRay": 3741,
      "Ġdelta": 3742,
      "ases": 3743,
      "ĠMin": 3744,
      "ĠOR": 3745,
      "Ġeasing": 3746,
      "Ġ/__": 3747,
      "Disable": 3748,
      "ĠDebounce": 3749,
      "*((_": 3750,
      "CustomPhysicalProperties": 3751,
      "51": 3752,
      "89": 3753,
      "PSI": 3754,
      "acy": 3755,
      "hq": 3756,
      "prev": 3757,
      "inde": 3758,
      "selected": 3759,
      "ĊĉĉĉĊĉ": 3760,
      "Ġremote": 3761,
      "))))": 3762,
      "ensures": 3763,
      "TableUtil": 3764,
      "ShiftUp": 3765,
      "ĠCompensation": 3766,
      "Ranks": 3767,
      "Dir": 3768,
      "UT": 3769,
      "hf": 3770,
      "imuth": 3771,
      "ĠRatio": 3772,
      "ĠraycastResult": 3773,
      "limbcolliderweld": 3774,
      "RigAttachment": 3775,
      "Ġspecific": 3776,
      "FindPartOnRay": 3777,
      "Azimuth": 3778,
      "DPad": 3779,
      "Hint": 3780,
      "Success": 3781,
      "png": 3782,
      "Ġdrag": 3783,
      "ĠLoader": 3784,
      "Limits": 3785,
      "UpperTorso": 3786,
      "Ġadds": 3787,
      "ĠEngine": 3788,
      "ZoomDistance": 3789,
      "wdhf": 3790,
      "hqwdhf": 3791,
      ")\")": 3792,
      "=-": 3793,
      "Platform": 3794,
      "lan": 3795,
      "trans": 3796,
      "lev": 3797,
      "lied": 3798,
      "Ġreject": 3799,
      "======": 3800,
      ")).": 3801,
      "ĠRecoil": 3802,
      "Ġsee": 3803,
      "999999": 3804,
      "-------------------------------------------------------------------------------------------": 3805,
      "uzzle": 3806,
      ",{": 3807,
      "Layout": 3808,
      "stor": 3809,
      "isf": 3810,
      "Ġsyn": 3811,
      "ĠTrans": 3812,
      "config": 3813,
      "emote": 3814,
      "Select": 3815,
      "Ġlight": 3816,
      "RunAfter": 3817,
      "formation": 3818,
      "Score": 3819,
      "Ġevents": 3820,
      "Explosive": 3821,
      "Ġagainst": 3822,
      "ES": 3823,
      "Face": 3824,
      "Rain": 3825,
      "speaker": 3826,
      "Ġtim": 3827,
      "ced": 3828,
      "pear": 3829,
      "pty": 3830,
      "ateFrame": 3831,
      "Shaker": 3832,
      "AS": 3833,
      "AME": 3834,
      "gg": 3835,
      "sword": 3836,
      "team": 3837,
      "ymb": 3838,
      "Ġ::": 3839,
      "ense": 3840,
      "Ġslash": 3841,
      "Ġinv": 3842,
      "omatically": 3843,
      "));": 3844,
      "ĠHand": 3845,
      "8488": 3846,
      "ÐµÐ": 3847,
      "dicate": 3848,
      "ĠDOOR": 3849,
      "UNCTIONS": 3850,
      "Ġ_______": 3851,
      "Ġrespective": 3852,
      "ymbol": 3853,
      ")+(": 3854,
      "oal": 3855,
      "xim": 3856,
      "urned": 3857,
      "Ġscale": 3858,
      "Ġscreen": 3859,
      "image": 3860,
      "==-": 3861,
      "Ġinside": 3862,
      "Ġgener": 3863,
      "ĠWHAT": 3864,
      "shoulder": 3865,
      "Ġelement": 3866,
      "(((": 3867,
      "Ġexcept": 3868,
      "Crosshair": 3869,
      "AutoShiftMode": 3870,
      "torso": 3871,
      "393": 3872,
      "BForce": 3873,
      "Hal": 3874,
      "bile": 3875,
      "tb": 3876,
      "rect": 3877,
      "cessed": 3878,
      "idle": 3879,
      "Engine": 3880,
      "Ġgravity": 3881,
      "Hitbox": 3882,
      "Ġstuff": 3883,
      "Ġdisplay": 3884,
      "pected": 3885,
      "oses": 3886,
      "Ġspecified": 3887,
      ")>": 3888,
      "Turn": 3889,
      "Vari": 3890,
      "Waist": 3891,
      "ĠFor": 3892,
      "aries": 3893,
      "delay": 3894,
      "Ġrec": 3895,
      "//////": 3896,
      "AdminLevel": 3897,
      "447": 3898,
      "radiator": 3899,
      "bie": 3900,
      "ArrowSize": 3901,
      "LookVector": 3902,
      "TakeDamage": 3903,
      "Ġ|_|": 3904,
      "Support": 3905,
      "YR": 3906,
      "Ġproperties": 3907,
      "Ġ(((": 3908,
      "PlayerAdded": 3909,
      "ĠThumbstick": 3910,
      "Ġchildren": 3911,
      "ModelWeld": 3912,
      "FDMult": 3913,
      "Allowed": 3914,
      "ximity": 3915,
      "Font": 3916,
      "Global": 3917,
      "ever": 3918,
      "glue": 3919,
      "Ġremov": 3920,
      "ĊĉĉĉĉĉĉĊĉĉĉĉĉ": 3921,
      "usic": 3922,
      "ClPressing": 3923,
      "Ġsecond": 3924,
      "296": 3925,
      "Ġdisabled": 3926,
      "Ġactual": 3927,
      "ove": 3928,
      "tick": 3929,
      "Ġtheir": 3930,
      "Stamina": 3931,
      "Reset": 3932,
      "Ġbreak": 3933,
      "ĠRot": 3934,
      "ĉĉĉĉĉĉĉĉĉĉ": 3935,
      "Ġ25": 3936,
      "Sounds": 3937,
      "Extension": 3938,
      "ĠnewCamera": 3939,
      "ooting": 3940,
      "Flash": 3941,
      "High": 3942,
      "fer": 3943,
      "gtwe": 3944,
      "mine": 3945,
      "ĠGui": 3946,
      "edAmmo": 3947,
      "ely": 3948,
      "Ġredu": 3949,
      "Ġgtwe": 3950,
      "PartTo": 3951,
      "Show": 3952,
      "MouseLock": 3953,
      "Ġline": 3954,
      "ĠYou": 3955,
      "ĠProcess": 3956,
      "Comput": 3957,
      "</": 3958,
      "PH": 3959,
      "RW": 3960,
      "Sub": 3961,
      "remote": 3962,
      "Ġcopy": 3963,
      "ĊĊĊĊ": 3964,
      "Ġ/_/": 3965,
      "Ġunpack": 3966,
      "Ġmodules": 3967,
      "BulletParticle": 3968,
      "eature": 3969,
      ">=": 3970,
      "How": 3971,
      "ĉĊĉĉ": 3972,
      "ĠParent": 3973,
      "Ġ70": 3974,
      "inue": 3975,
      "arn": 3976,
      "ĠTotal": 3977,
      "ĠBack": 3978,
      "7875": 3979,
      "Ġstarts": 3980,
      "Ġloading": 3981,
      "rite": 3982,
      "cclusion": 3983,
      "Evt": 3984,
      "Une": 3985,
      "dir": 3986,
      "health": 3987,
      "Ġgamepad": 3988,
      "AddedConn": 3989,
      "pecific": 3990,
      "========================================": 3991,
      "IgnoreList": 3992,
      "ThumbstickFrame": 3993,
      "Ġcontaining": 3994,
      "CoordinateFrame": 3995,
      "Ca": 3996,
      "Source": 3997,
      "eff": 3998,
      "uction": 3999,
      "Ġedit": 4000,
      "als": 4001,
      "orig": 4002,
      "unpack": 4003,
      "rict": 4004,
      "urch": 4005,
      "Ġacc": 4006,
      "ĠgTable": 4007,
      "Ġrunning": 4008,
      "ATE": 4009,
      "cause": 4010,
      "STAN": 4011,
      "AntiRoll": 4012,
      "MagCW": 4013,
      "Include": 4014,
      "Ġ\\/": 4015,
      "BubbleMain": 4016,
      "=(": 4017,
      "Page": 4018,
      "XR": 4019,
      "_(": 4020,
      "gular": 4021,
      "path": 4022,
      "Ġthrough": 4023,
      "Ġcf": 4024,
      "Ġcancel": 4025,
      "Ġsupport": 4026,
      "Updated": 4027,
      "MaxHealth": 4028,
      "clamp": 4029,
      "ImageLabel": 4030,
      ")/_": 4031,
      "53": 4032,
      "74": 4033,
      ">>": 4034,
      "Has": 4035,
      "PC": 4036,
      "VS": 4037,
      "property": 4038,
      "rate": 4039,
      "Ġlower": 4040,
      "Ġfade": 4041,
      "ott": 4042,
      "Ġform": 4043,
      "\"]))": 4044,
      "(-(": 4045,
      "Ġshake": 4046,
      "Ġanything": 4047,
      "902": 4048,
      "iconButton": 4049,
      "ANGE": 4050,
      "Attribute": 4051,
      "ĠBaseCamera": 4052,
      "currentAnimKeyframeHandler": 4053,
      "Ġdoesn": 4054,
      "Cooldown": 4055,
      "CollisionGroup": 4056,
      "GettingUp": 4057,
      "CRot": 4058,
      "['": 4059,
      "human": 4060,
      "holder": 4061,
      "wav": 4062,
      "Ġroll": 4063,
      "ĊĉĊĉĊ": 4064,
      "Initial": 4065,
      "DealWithInput": 4066,
      "Ġdeleted": 4067,
      "ĠID": 4068,
      "ipher": 4069,
      "Ġlink": 4070,
      "Ġspring": 4071,
      "-------------------------": 4072,
      "Ġ___/": 4073,
      "Ġ____": 4074,
      "Callback": 4075,
      "Swimming": 4076,
      "eleport": 4077,
      "thumbstickFrame": 4078,
      "BulletParticleData": 4079,
      "Owner": 4080,
      "Whit": 4081,
      "aw": 4082,
      "flash": 4083,
      "enabled": 4084,
      "Ġteam": 4085,
      "Ġput": 4086,
      "Ġsystem": 4087,
      "ĠCount": 4088,
      "pts": 4089,
      "cont": 4090,
      "Ġstop": 4091,
      "rank": 4092,
      "ĠPoint": 4093,
      "ĠBeam": 4094,
      "ERS": 4095,
      "____/": 4096,
      "ained": 4097,
      "ĠShow": 4098,
      "ChangeConn": 4099,
      "Ġcommands": 4100,
      "ification": 4101,
      "Ġallowed": 4102,
      "ĠRunService": 4103,
      "=======": 4104,
      "ottom": 4105,
      "OW": 4106,
      "nap": 4107,
      "zone": 4108,
      "Ġcmd": 4109,
      "ateg": 4110,
      "ĠUtil": 4111,
      "MouseBrake": 4112,
      "MouseThrottle": 4113,
      "Attach": 4114,
      "here": 4115,
      "881": 4116,
      "ABSActive": 4117,
      "GSteerC": 4118,
      "connections": 4119,
      "Accessory": 4120,
      "etaFunc": 4121,
      "veloper": 4122,
      ")}": 4123,
      "pre": 4124,
      "elf": 4125,
      "Ġnon": 4126,
      "Ġbound": 4127,
      "ĠTrack": 4128,
      "174": 4129,
      "MinFriction": 4130,
      "BindAction": 4131,
      "Ġ700": 4132,
      "WeaponInHand": 4133,
      "WearSpeed": 4134,
      "!\")": 4135,
      "81": 4136,
      "CosmeticBullet": 4137,
      "dt": 4138,
      "Ġ--------": 4139,
      "ince": 4140,
      "description": 4141,
      "Ġprop": 4142,
      "Ġread": 4143,
      "Ġhuman": 4144,
      "Ġdelay": 4145,
      "Ġwhether": 4146,
      "iple": 4147,
      "CTOR": 4148,
      "runAnim": 4149,
      "notice": 4150,
      "========================================================================": 4151,
      "scale": 4152,
      "top": 4153,
      "ĠClass": 4154,
      "Ġ==_": 4155,
      "ChildRemoved": 4156,
      "Ġwithout": 4157,
      "ĠView": 4158,
      "Animations": 4159,
      "ClickDetector": 4160,
      "Logic": 4161,
      "className": 4162,
      "ĊĠĠĠĠĠĠĠĠĠĠĠĠĠĠĠĠĠĠĠ": 4163,
      "Fn": 4164,
      "Tick": 4165,
      "elist": 4166,
      "ability": 4167,
      "Enter": 4168,
      "erval": 4169,
      "ĠLower": 4170,
      "173648": 4171,
      "420": 4172,
      "Orientation": 4173,
      "tt": 4174,
      "ĠEvents": 4175,
      "Inf": 4176,
      "Ġmade": 4177,
      "maxSpin": 4178,
      "123": 4179,
      "TCSActive": 4180,
      "KE": 4181,
      "ĠTune": 4182,
      "Ġsw": 4183,
      "ĠInspar": 4184,
      "ĠReplic": 4185,
      "ĠOr": 4186,
      "angular": 4187,
      "MoveTo": 4188,
      "144": 4189,
      "Ġ40": 4190,
      "StoredAmmo": 4191,
      "ĠShoulder": 4192,
      "OLD": 4193,
      "ITY": 4194,
      "Ġ/__/": 4195,
      "ĠTransmission": 4196,
      "ĠInspare": 4197,
      "61": 4198,
      "Trello": 4199,
      "core": 4200,
      "nail": 4201,
      "ob": 4202,
      "until": 4203,
      "ĠService": 4204,
      "Users": 4205,
      "ĠDrive": 4206,
      "ĠDamage": 4207,
      "umbnail": 4208,
      "ived": 4209,
      "136": 4210,
      "Presets": 4211,
      "TargetFriction": 4212,
      "ĠhitData": 4213,
      "camRecoil": 4214,
      "AbsolutePosition": 4215,
      "Ġcreated": 4216,
      "gunRecoil": 4217,
      "-(_": 4218,
      "bow": 4219,
      "pres": 4220,
      "uis": 4221,
      "xle": 4222,
      "ĠĠĠĠĠĠĠĠĠĠĠ": 4223,
      "Ġbool": 4224,
      "ĉĉĉĉĉĉĉĉĉĉĉĉ": 4225,
      "Only": 4226,
      "Ġrandom": 4227,
      "ĠwaitForChild": 4228,
      "Ġ(_)": 4229,
      "Ġmovement": 4230,
      "Ġcolorbin": 4231,
      "ribution": 4232,
      "Ġengine": 4233,
      "ĠUnder": 4234,
      "Ġautomatically": 4235,
      "ĠMakes": 4236,
      "plements": 4237,
      "Ġsynced": 4238,
      "Plus": 4239,
      "Ġ=========================================================================": 4240,
      "ern": 4241,
      "CharacterController": 4242,
      "ĠRemove": 4243,
      "Ġ/___/": 4244,
      "GameSettings": 4245,
      "ĠTargetTorso": 4246,
      "___/_": 4247,
      "ccup": 4248,
      "Ġinstant": 4249,
      "SecondLogic": 4250,
      "ĠManual": 4251,
      "Ġdetermines": 4252,
      "Ġ================================================================================": 4253,
      "62": 4254,
      "Gauge": 4255,
      "OP": 4256,
      "Plastic": 4257,
      "--////////////////////////////////": 4258,
      "ano": 4259,
      "Ġcut": 4260,
      "Increment": 4261,
      "ĠSET": 4262,
      "ĠProperties": 4263,
      "istory": 4264,
      "Seated": 4265,
      "Ġattack": 4266,
      "MakeGui": 4267,
      "Ġenable": 4268,
      "AnchorPoint": 4269,
      "UnbindAction": 4270,
      "9254": 4271,
      "378": 4272,
      "Emote": 4273,
      "Node": 4274,
      "Pass": 4275,
      "System": 4276,
      "Vis": 4277,
      "Ġflag": 4278,
      "Ġorder": 4279,
      "ĠAC": 4280,
      "Keyboard": 4281,
      "Ġdead": 4282,
      "make": 4283,
      "ĠnewSound": 4284,
      "renade": 4285,
      "_/\\": 4286,
      "Raycast": 4287,
      "ĠmaxSpin": 4288,
      "Amount": 4289,
      "SIDE": 4290,
      "ĠRoact": 4291,
      "Ġmatched": 4292,
      "BubbleTail": 4293,
      "RemovingConn": 4294,
      "175903": 4295,
      "902175903": 4296,
      "Gradient": 4297,
      "SV": 4298,
      "vate": 4299,
      "uning": 4300,
      "Ġbrack": 4301,
      "ĠTime": 4302,
      "Decal": 4303,
      "HumanoidState": 4304,
      "Ġexample": 4305,
      "Ġseat": 4306,
      "UIS": 4307,
      "Ġenv": 4308,
      "773": 4309,
      "NumberValue": 4310,
      "Padding": 4311,
      "Ġcreator": 4312,
      "controller": 4313,
      "angularvelocity": 4314,
      "___/_//": 4315,
      "Ġbrackets": 4316,
      "VM": 4317,
      "Ġbecause": 4318,
      "ĠNe": 4319,
      "Ġtables": 4320,
      "Backpack": 4321,
      "FrictionWeight": 4322,
      "Ġexisting": 4323,
      "Ġtwo": 4324,
      "StickX": 4325,
      "Ġdifferent": 4326,
      ")()": 4327,
      "+_": 4328,
      "110": 4329,
      "228": 4330,
      "LN": 4331,
      "Methods": 4332,
      "hinge": 4333,
      "ll": 4334,
      "Ġcustom": 4335,
      "Ġmaterial": 4336,
      "Ġrequest": 4337,
      "ĠBuild": 4338,
      "ĠDirection": 4339,
      "Ġ`(_-<": 4340,
      "Ġ|____/": 4341,
      "Ġ(_-<": 4342,
      "_,_/___/": 4343,
      "ugg": 4344,
      "ĠRoSync": 4345,
      "___/_/___/": 4346,
      "Asset": 4347,
      "ART": 4348,
      "Ġ\\___/_//": 4349,
      "ĠImage": 4350,
      "(_-</": 4351,
      "IGHT": 4352,
      "ĠMyComponent": 4353,
      "AULT": 4354,
      "Ġ(_)__": 4355,
      "_/\\_,_/___/": 4356,
      "Ġ`(_-<(_-</": 4357,
      "Ġ\\___/_//_/\\_,_/___/": 4358,
      "Ġ\\___/_//_/\\_,_/___/___/_/___/": 4359,
      "Bounds": 4360,
      "Poses": 4361,
      "Wrap": 4362,
      "clock": 4363,
      "Ñĥ": 4364,
      "ĠMod": 4365,
      "ĠcInput": 4366,
      "charger": 4367,
      "spring": 4368,
      "ĠFUNCTIONS": 4369,
      "quad": 4370,
      "Ġupshift": 4371,
      "Ġselect": 4372,
      "parts": 4373,
      "PreCompress": 4374,
      "679": 4375,
      "brary": 4376,
      "Reference": 4377,
      "apping": 4378,
      "Ġdownshift": 4379,
      "GunStance": 4380,
      "CompressLim": 4381,
      "Creator": 4382,
      "ExtensionLim": 4383,
      "FAULT": 4384,
      "ek": 4385,
      "joint": 4386,
      "Ġke": 4387,
      "Ġsave": 4388,
      "Ġdri": 4389,
      "Ġstor": 4390,
      "ĠHole": 4391,
      "ĠDE": 4392,
      "ObjectSpace": 4393,
      "ĠChat": 4394,
      "wardValue": 4395,
      "6044": 4396,
      "ixel": 4397,
      "Ġstrugg": 4398,
      "GripUp": 4399,
      "GripRight": 4400,
      "GripForward": 4401,
      "HPInc": 4402,
      "ĠtweenInfo": 4403,
      "ĠProfile": 4404,
      "CamUpdate": 4405,
      "Ġstruggling": 4406,
      "Border": 4407,
      "Elev": 4408,
      "`)": 4409,
      "ailed": 4410,
      "click": 4411,
      "eps": 4412,
      "ppear": 4413,
      "Ġ]": 4414,
      "Ġtake": 4415,
      "Ġpass": 4416,
      "weight": 4417,
      "umbpad": 4418,
      "ĠIt": 4419,
      "CameraMode": 4420,
      "Modifier": 4421,
      "UpperLeg": 4422,
      "ategory": 4423,
      "79": 4424,
      "83": 4425,
      "issing": 4426,
      "che": 4427,
      "Released": 4428,
      "ĠHip": 4429,
      "SteerL": 4430,
      "Ċĉĉĉĉĉĉĉĉĉĉĉ": 4431,
      "Ġsetup": 4432,
      "Ġlog": 4433,
      "oldAnim": 4434,
      "654": 4435,
      "Ġenum": 4436,
      "Teams": 4437,
      "placed": 4438,
      "Cylind": 4439,
      "--|": 4440,
      "Ġsimp": 4441,
      "Ġ120": 4442,
      "Ġrepeat": 4443,
      "ĠvPlayer": 4444,
      "Then": 4445,
      "642": 4446,
      "compression": 4447,
      "UpperArm": 4448,
      "ĠKnit": 4449,
      "repeatAnim": 4450,
      "Killer": 4451,
      "Ġresting": 4452,
      "NT": 4453,
      "^(": 4454,
      "gTable": 4455,
      "ken": 4456,
      "motes": 4457,
      "pc": 4458,
      "ilt": 4459,
      "Ġtoo": 4460,
      "Ġtoward": 4461,
      "ĠList": 4462,
      "ĠReverse": 4463,
      "RightHip": 4464,
      "MouseClick": 4465,
      "TouchEnded": 4466,
      "TheKiller": 4467,
      "culate": 4468,
      "Ġ9000": 4469,
      "ĠRadius": 4470,
      "effTheKiller": 4471,
      "ĠNeutral": 4472,
      "LI": 4473,
      "]*": 4474,
      "ĠMa": 4475,
      "ĠEvent": 4476,
      "ĠMain": 4477,
      "ative": 4478,
      "ric": 4479,
      "ĠTrue": 4480,
      "emy": 4481,
      "TextTransparency": 4482,
      "LeftHip": 4483,
      "riginal": 4484,
      "Updates": 4485,
      "Clients": 4486,
      "BodyVelocity": 4487,
      "Ġworking": 4488,
      "SmoothPlastic": 4489,
      "EL": 4490,
      "Fill": 4491,
      "Paint": 4492,
      "ped": 4493,
      "ents": 4494,
      "ided": 4495,
      "Ġdual": 4496,
      "astCast": 4497,
      "ĠFE": 4498,
      "SteerR": 4499,
      "CameraSubject": 4500,
      "ways": 4501,
      "Ġabove": 4502,
      "LungeSound": 4503,
      "PlatformStand": 4504,
      "EE": 4505,
      "Hp": 4506,
      "bool": 4507,
      "len": 4508,
      "oss": 4509,
      "ends": 4510,
      "ĠTeam": 4511,
      "ĠRegen": 4512,
      "Tables": 4513,
      "ĠOff": 4514,
      "ServerStorage": 4515,
      "Ġimg": 4516,
      "--------------------)": 4517,
      "ĠClutchless": 4518,
      "elee": 4519,
      "ĠImplements": 4520,
      "TROL": 4521,
      "CanvasSize": 4522,
      "Intermission": 4523,
      "FallingDown": 4524,
      "ibility": 4525,
      "chestr": 4526,
      "AIN": 4527,
      "Center": 4528,
      "Wail": 4529,
      "aude": 4530,
      "ia": 4531,
      "select": 4532,
      "studs": 4533,
      "caled": 4534,
      "Ġwould": 4535,
      "Ġ1400": 4536,
      "ĠSeg": 4537,
      "ĠLa": 4538,
      "ĠRoot": 4539,
      "ToProcess": 4540,
      "Ġstore": 4541,
      "124": 4542,
      "Product": 4543,
      "BindTo": 4544,
      "ĠRemoteEvent": 4545,
      "Shared": 4546,
      "Fixed": 4547,
      "+((((": 4548,
      "ximityPrompt": 4549,
      "HumanoidStateType": 4550,
      "AC": 4551,
      "Knit": 4552,
      "MO": 4553,
      "Specific": 4554,
      "edge": 4555,
      "Ġclick": 4556,
      "Str": 4557,
      "ĠCH": 4558,
      "Ġway": 4559,
      "Ġdictionary": 4560,
      "Request": 4561,
      "GetAttribute": 4562,
      "--------------------------------------------------------": 4563,
      "Search": 4564,
      "Exhaust": 4565,
      "Arms": 4566,
      "castParams": 4567,
      "loading": 4568,
      "LaserData": 4569,
      "Ġlistener": 4570,
      "display": 4571,
      "LowerArm": 4572,
      "';": 4573,
      "?,": 4574,
      "Comm": 4575,
      "Sir": 4576,
      "src": 4577,
      "Ġ})": 4578,
      "ĠValues": 4579,
      "atar": 4580,
      "Ġfix": 4581,
      "lap": 4582,
      "Ġsm": 4583,
      "ĠCON": 4584,
      "Ġbike": 4585,
      "Ġver": 4586,
      "Ġstill": 4587,
      "ĉĉĉĉĉĉĉĉĊĉ": 4588,
      "___": 4589,
      "ĠPaint": 4590,
      "map": 4591,
      "ĠNo": 4592,
      "TimePosition": 4593,
      "ynam": 4594,
      "ERO": 4595,
      "HitEffect": 4596,
      "RaycastResult": 4597,
      "RenderPriority": 4598,
      "RigType": 4599,
      "ĠKeyboard": 4600,
      "Ġremoved": 4601,
      "125": 4602,
      "cwspeed": 4603,
      "sses": 4604,
      "âĢ": 4605,
      "ĠMap": 4606,
      "Ġ});": 4607,
      "urs": 4608,
      "Ġsurface": 4609,
      "ombie": 4610,
      "Ġstatus": 4611,
      "))*((_": 4612,
      "ĠFinalDrive": 4613,
      "Heartbeat": 4614,
      "ĠNeck": 4615,
      "ivate": 4616,
      "846": 4617,
      "766044": 4618,
      "TireStats": 4619,
      "Roact": 4620,
      "Ġintcam": 4621,
      "-(": 4622,
      "EM": 4623,
      "Small": 4624,
      "Ġsince": 4625,
      "then": 4626,
      "ĠĊĉĠĠ": 4627,
      "offset": 4628,
      "Ġlabel": 4629,
      "ĠWhen": 4630,
      "925416": 4631,
      "323": 4632,
      "FT": 4633,
      "Place": 4634,
      "Sol": 4635,
      "Test": 4636,
      "erImage": 4637,
      "Ġdefin": 4638,
      "ĠIndex": 4639,
      "CameraShaker": 4640,
      "lastWeight": 4641,
      "Ġsection": 4642,
      "Ġ|--": 4643,
      "findFirstChildOfClass": 4644,
      "Orchestr": 4645,
      "LowerLeg": 4646,
      "ElWeight": 4647,
      "Ġoptions": 4648,
      "FrWeight": 4649,
      "ĠHandbrake": 4650,
      "Elevation": 4651,
      ",(": 4652,
      "Plr": 4653,
      "Props": 4654,
      "ZE": 4655,
      "](": 4656,
      "cer": 4657,
      "close": 4658,
      "cmd": 4659,
      "gener": 4660,
      "ĠValue": 4661,
      "ones": 4662,
      "arning": 4663,
      "losed": 4664,
      "label": 4665,
      "Ind": 4666,
      "Ġvariables": 4667,
      "Ġvars": 4668,
      "ĠLight": 4669,
      "ĠBOV": 4670,
      "Ġlarger": 4671,
      "Disk": 4672,
      "5012": 4673,
      "130": 4674,
      "6545": 4675,
      "Instances": 4676,
      "FocusReleased": 4677,
      "VECTOR": 4678,
      "Ġapply": 4679,
      "Ġcorrect": 4680,
      "VER": 4681,
      "ĠĠĠĠĠĠ": 4682,
      "Ġfilter": 4683,
      "Ġcase": 4684,
      "ĠTransparency": 4685,
      "CameraMax": 4686,
      "ĠNot": 4687,
      "INGS": 4688,
      "Ġloaded": 4689,
      "Ð°Ð": 4690,
      "walkpart": 4691,
      "ĠZERO": 4692,
      "jumpButton": 4693,
      "BloodWound": 4694,
      "ynamic": 4695,
      "CameraMaxZoomDistance": 4696,
      "But": 4697,
      "Break": 4698,
      "Monster": 4699,
      "Yelp": 4700,
      "handle": 4701,
      "mp": 4702,
      "ood": 4703,
      "ĠUser": 4704,
      "ĠStop": 4705,
      "Ġsingle": 4706,
      "Indicator": 4707,
      "ĠCenter": 4708,
      "ĠHP": 4709,
      "keys": 4710,
      "Ġselection": 4711,
      "Ġpoints": 4712,
      "////////////////////////": 4713,
      "Ġdefaults": 4714,
      "Ġvelocity": 4715,
      "Ġrotation": 4716,
      "Cape": 4717,
      "_)": 4718,
      "cry": 4719,
      "Ġut": 4720,
      "ĠModel": 4721,
      "Ġtip": 4722,
      "ĠOut": 4723,
      "temp": 4724,
      "ShiftDown": 4725,
      "RayInfo": 4726,
      "342020": 4727,
      "PBrakeForce": 4728,
      "Roblox": 4729,
      "Ġclone": 4730,
      "98480773": 4731,
      "Sight": 4732,
      "ĠĊĉĉĉĉ": 4733,
      "ermin": 4734,
      "its": 4735,
      "Ġboth": 4736,
      "Ġopen": 4737,
      "Ġvolume": 4738,
      "ĠRandom": 4739,
      "OnClient": 4740,
      "shake": 4741,
      "ĠOF": 4742,
      "Ġ5500": 4743,
      "ooldown": 4744,
      "132": 4745,
      "Joints": 4746,
      "Ġprofile": 4747,
      "Configuration": 4748,
      "Ġrange": 4749,
      "Ġcoroutine": 4750,
      "ĠANY": 4751,
      "BindToRenderStep": 4752,
      "FAntiRoll": 4753,
      "ron": 4754,
      "transparency": 4755,
      "ĊĉĠ": 4756,
      "ite": 4757,
      "rouch": 4758,
      "Ġtoggle": 4759,
      "Ġreason": 4760,
      "Ġhp": 4761,
      "conc": 4762,
      "ĠHigher": 4763,
      "ButtonL": 4764,
      "ĠMetaFunc": 4765,
      "Setting": 4766,
      "789": 4767,
      "Ġ6000": 4768,
      "ĠĊĉĠ": 4769,
      "uments": 4770,
      "Ġdisconnect": 4771,
      "Ġitems": 4772,
      "Ġmultiple": 4773,
      "Execute": 4774,
      "2955012": 4775,
      "Area": 4776,
      "ernal": 4777,
      "295501232": 4778,
      "LY": 4779,
      "touch": 4780,
      "ĠZone": 4781,
      "--!": 4782,
      "strict": 4783,
      "Mass": 4784,
      ")))*": 4785,
      "Ġdepend": 4786,
      "ĠPlay": 4787,
      "Ġscripts": 4788,
      "Ġconver": 4789,
      "ensions": 4790,
      "ScriptService": 4791,
      "Prov": 4792,
      "Ġalignment": 4793,
      "685": 4794,
      "tqABS": 4795,
      "Utils": 4796,
      "Peripher": 4797,
      "ĠTODO": 4798,
      "Ġcleanup": 4799,
      "AdjustSpeed": 4800,
      "ĠGearing": 4801,
      "ĠCHANGE": 4802,
      "']": 4803,
      "223": 4804,
      "Bound": 4805,
      "Coil": 4806,
      "MA": 4807,
      "Scaling": 4808,
      "Tip": 4809,
      "direction": 4810,
      "uted": 4811,
      "ander": 4812,
      "Ġspeaker": 4813,
      "Ġwip": 4814,
      "gest": 4815,
      "Register": 4816,
      "ĊĊĠĠĠĠĠĠĠ": 4817,
      "ĠSlider": 4818,
      "001": 4819,
      "upp": 4820,
      "ĠBlood": 4821,
      "Ġlong": 4822,
      "Split": 4823,
      "Ġselected": 4824,
      "scene": 4825,
      "StarterGui": 4826,
      "TouchObject": 4827,
      "assets": 4828,
      "Ġcalls": 4829,
      "3368": 4830,
      "toolanim": 4831,
      "Ġimplement": 4832,
      "When": 4833,
      "ContlrToggle": 4834,
      "Ġabout": 4835,
      "Ġexplo": 4836,
      "ameters": 4837,
      "actionName": 4838,
      "Ready": 4839,
      "spiration": 4840,
      "ĠMinimum": 4841,
      "Peripherals": 4842,
      "Ġwiped": 4843,
      "Aspiration": 4844,
      "Cli": 4845,
      "Pixel": 4846,
      "Ru": 4847,
      "replaced": 4848,
      "Ġsat": 4849,
      "Ġblock": 4850,
      "add": 4851,
      "GetRandom": 4852,
      "Ġanother": 4853,
      "Ġconnect": 4854,
      "AddTo": 4855,
      "lastSubject": 4856,
      "Ġunique": 4857,
      "293": 4858,
      "WeightDist": 4859,
      "JumpButton": 4860,
      "braries": 4861,
      "Swch": 4862,
      "known": 4863,
      "cursive": 4864,
      "Ð½Ð¸": 4865,
      "BeamClone": 4866,
      "Ġfollowing": 4867,
      "ĠSegment": 4868,
      "Bottom": 4869,
      "erial": 4870,
      "olting": 4871,
      "olved": 4872,
      "Ġspe": 4873,
      "igned": 4874,
      "ĠCache": 4875,
      "Ġwarn": 4876,
      "Ġvis": 4877,
      "ĠReturn": 4878,
      "Ġdoor": 4879,
      "Ġchr": 4880,
      "CameraShake": 4881,
      "ĠMO": 4882,
      "SeatWeld": 4883,
      "ough": 4884,
      "ScriptConnection": 4885,
      "ailure": 4886,
      "runLimit": 4887,
      "component": 4888,
      "getfenv": 4889,
      "structor": 4890,
      "Kicking": 4891,
      "Ġmethods": 4892,
      "ĉĉĉĉĉĉĉĉĉĉĉĉĉĉĉĉĉĉĉĉĉĉĉĉĉĉĉĉĉĉĉĉĉĉĉĉĉĉĉĉĉĉĉĉĉĉĉĉĉĉĉĉĉĉĉĉĉĉĉĉĉĉĉĉĉĉĉĉĉĉĉĉĉĉĉĉĉĉĉĉĉĉĉĉĉĉĉĉĉĉĉĉĉĉĉĉĉĉĉĉĉĉĉĉĉĉĉĉĉĉĉĉĉĉĉĉĉĉĉĉĉĉĉĉĉĉĉĉĉĉĉĉĉĉĉĉĉĉĉĉĉĉĉĉĉĉĉĉĉĉĉĉĉĉĉĉĉĉĉĉĉĉĉĉĉĉĉĉĉĉĉĉĉĉĉĉĉĉĉĉĉĉĉĉĉĉĉĉĉĉĉĉĉĉĉĉĉĉĉĉĉĉĉĉĉĉĉĉĉĉĉĉĉĉĉĉĉĉĉĉĉĉĉĉĉĉĉĉĉĉĉĉĉĉĉĉĉĉĉĉĉĉĉĉĉĉĉĉĉĉĉĉĉĉĉĉ": 4893,
      "AdjustWeight": 4894,
      "ĠNumberSequence": 4895,
      "PartToFollow": 4896,
      "Caption": 4897,
      "-((": 4898,
      "715": 4899,
      "Finished": 4900,
      "Hover": 4901,
      "TINGS": 4902,
      "Version": 4903,
      "co": 4904,
      "sk": 4905,
      "{\"": 4906,
      "Ðº": 4907,
      "Ġ//": 4908,
      "only": 4909,
      "ĠĠĠĠĠĊĉĠĠ": 4910,
      "Ġplugins": 4911,
      "Ġinit": 4912,
      "Moved": 4913,
      "Ġ((_": 4914,
      "ĠScreen": 4915,
      "ĠSuper": 4916,
      "ĠInit": 4917,
      "ĠBe": 4918,
      "ĠUse": 4919,
      "Ġcontainer": 4920,
      "ĠNormal": 4921,
      "clutch": 4922,
      "Creates": 4923,
      "Ġunless": 4924,
      "Detected": 4925,
      "SubjectDistance": 4926,
      "SIZE": 4927,
      "Ġcontrols": 4928,
      "ĠJanitor": 4929,
      "logError": 4930,
      "Ġscroll": 4931,
      "ĠdialogueFolder": 4932,
      "oins": 4933,
      "LAY": 4934,
      "Ġspeaking": 4935,
      "BVisible": 4936,
      "Ġ]=": 4937,
      "ĉĉĊĉ": 4938,
      "Ġtree": 4939,
      "ctive": 4940,
      "leaderstats": 4941,
      "recoil": 4942,
      "Ġcould": 4943,
      "etime": 4944,
      "andThen": 4945,
      "Ġmedi": 4946,
      "ĊĊĠ": 4947,
      "ToMove": 4948,
      "api": 4949,
      "ĠUN": 4950,
      "FireClient": 4951,
      "Armor": 4952,
      "Barrel": 4953,
      "armweld": 4954,
      "END": 4955,
      "Ġorigin": 4956,
      "currentAnimSpeed": 4957,
      "ILL": 4958,
      "Execution": 4959,
      "Orchestration": 4960,
      "858": 4961,
      "Build": 4962,
      "CG": 4963,
      "CDiffLockThres": 4964,
      "CDiffSlipThres": 4965,
      "FWD": 4966,
      "rust": 4967,
      "Ġsmall": 4968,
      "ĠCall": 4969,
      "ado": 4970,
      "StateInfo": 4971,
      "plus": 4972,
      "Differential": 4973,
      "NotZero": 4974,
      "Ġpredicate": 4975,
      "ĊĠĉĉĉĉĉ": 4976,
      "Lib": 4977,
      "Ġdistribution": 4978,
      "TPsi": 4979,
      "CoreGuiEnabled": 4980,
      "TIME": 4981,
      "STANCE": 4982,
      "Ġdriven": 4983,
      "ButNotZero": 4984,
      "ACK": 4985,
      "flag": 4986,
      "gra": 4987,
      "iated": 4988,
      "material": 4989,
      "Ġ90": 4990,
      "Ġthings": 4991,
      "ref": 4992,
      "ifetime": 4993,
      "Ġfile": 4994,
      "Ġfull": 4995,
      "Ġpounds": 4996,
      "otion": 4997,
      "idx": 4998,
      "Encode": 4999,
      "Ġaxis": 5000,
      "exp": 5001,
      "export": 5002,
      "ups": 5003,
      "cessary": 5004,
      "ProximityPrompt": 5005,
      "pospart": 5006,
      "ScreenGui": 5007,
      "achedParts": 5008,
      "Ġreturned": 5009,
      "profile": 5010,
      "VehicleSeat": 5011,
      "Ġimgassets": 5012,
      "Ġsatisf": 5013,
      "Brick": 5014,
      "Dirt": 5015,
      "TE": 5016,
      "Water": 5017,
      "category": 5018,
      "Ñı": 5019,
      "ĠUp": 5020,
      "igit": 5021,
      "izing": 5022,
      "Ġchanged": 5023,
      "Buttons": 5024,
      "PointLight": 5025,
      "luence": 5026,
      "ailable": 5027,
      "stry": 5028,
      "ĠotherIcon": 5029,
      "WithIgnoreList": 5030,
      "Ġneeds": 5031,
      "FreeFall": 5032,
      "runAnimKeyframeHandler": 5033,
      "Rules": 5034,
      "\"})": 5035,
      "980": 5036,
      "Element": 5037,
      "Round": 5038,
      "Tw": 5039,
      "WBVisible": 5040,
      "ĉĉĊ": 5041,
      "Ġterrain": 5042,
      "red": 5043,
      "Ġfall": 5044,
      "lags": 5045,
      "ries": 5046,
      "Ġaccess": 5047,
      "spin": 5048,
      "Adornee": 5049,
      "TransparencyModifier": 5050,
      "ĠOrigin": 5051,
      "Ġ300": 5052,
      "Ġaround": 5053,
      "805": 5054,
      "LocalTransparencyModifier": 5055,
      "655": 5056,
      "ĠanimTable": 5057,
      "FSusLength": 5058,
      "KeysObj": 5059,
      "Ġresolve": 5060,
      "WorldCFrame": 5061,
      "HingeConstraint": 5062,
      "Ġtracking": 5063,
      "ScrollBar": 5064,
      "lane": 5065,
      "Half": 5066,
      "Ġmedian": 5067,
      "CGHeight": 5068,
      ")\",": 5069,
      "Cr": 5070,
      "Dano": 5071,
      "Grenade": 5072,
      "Occup": 5073,
      "Some": 5074,
      "VI": 5075,
      "Valid": 5076,
      "dimm": 5077,
      "reen": 5078,
      "stants": 5079,
      "cky": 5080,
      "Moving": 5081,
      "ValueObj": 5082,
      "ĠAs": 5083,
      "ĠFace": 5084,
      "Types": 5085,
      "Ġrate": 5086,
      "fade": 5087,
      "ĠGMode": 5088,
      "rung": 5089,
      "revMin": 5090,
      "Ġconnections": 5091,
      "Elbow": 5092,
      "AxleSize": 5093,
      "CONTROL": 5094,
      "ARE": 5095,
      "Audio": 5096,
      "Dropdown": 5097,
      "Knee": 5098,
      "Melee": 5099,
      "One": 5100,
      "iver": 5101,
      "Ġĉĉ": 5102,
      "ĠĊĉĉĉĉĉ": 5103,
      "ĠÑģ": 5104,
      "Ġturn": 5105,
      "--------------": 5106,
      "vector": 5107,
      "Rec": 5108,
      "sprung": 5109,
      "ĠAim": 5110,
      "upTemp": 5111,
      "Animate": 5112,
      "Humanoids": 5113,
      "Ġdestroy": 5114,
      "ĠWait": 5115,
      "ĠFI": 5116,
      "\"]==": 5117,
      "lowupTemp": 5118,
      "Ġrender": 5119,
      "201": 5120,
      "Ġexact": 5121,
      "percent": 5122,
      "Unsprung": 5123,
      "iconImage": 5124,
      "iconLabel": 5125,
      "3227": 5126,
      "ĠAdonis": 5127,
      "Ġmany": 5128,
      "Overline": 5129,
      "hpPlot": 5130,
      "Ġcaption": 5131,
      "InvokeServer": 5132,
      "Ancestor": 5133,
      "cross": 5134,
      "atrol": 5135,
      "admin": 5136,
      "Ġoper": 5137,
      "PlayerMovement": 5138,
      "ĠRect": 5139,
      "Ġicky": 5140,
      "IsDescendant": 5141,
      "999": 5142,
      "Ġsets": 5143,
      "AnimationSpeed": 5144,
      "Prev": 5145,
      "(.*": 5146,
      "AND": 5147,
      "986": 5148,
      "typeof": 5149,
      "FSusStiffness": 5150,
      "RSusLength": 5151,
      "Interval": 5152,
      "________________": 5153,
      "Ġprovided": 5154,
      "ĠMAX": 5155,
      "crypt": 5156,
      "AddToPlayerMovement": 5157,
      "IsDescendantOf": 5158,
      "BSize": 5159,
      "Hat": 5160,
      "RB": 5161,
      "ban": 5162,
      "cing": 5163,
      "uce": 5164,
      "ĊĠĠĠĠ": 5165,
      "ĠMove": 5166,
      "orn": 5167,
      "ĠCustom": 5168,
      "Ġdone": 5169,
      "Ġ--//": 5170,
      "Loc": 5171,
      "illboard": 5172,
      "Ġlunge": 5173,
      "moveVector": 5174,
      "movement": 5175,
      "ĠColorSequence": 5176,
      "Started": 5177,
      "ĠHitbox": 5178,
      "WeightBSize": 5179,
      "DEFAULT": 5180,
      "ĠÐ¿": 5181,
      "RSusStiffness": 5182,
      "Ġauto": 5183,
      "Ġlocked": 5184,
      "ĠrootPart": 5185,
      "Blur": 5186,
      "dimmensions": 5187,
      ")..\"": 5188,
      "Cal": 5189,
      "Cmd": 5190,
      "Ob": 5191,
      "Occlusion": 5192,
      "Ret": 5193,
      "ĠEnd": 5194,
      "ceived": 5195,
      "Ġsuch": 5196,
      "Ġside": 5197,
      "Ġnode": 5198,
      "GetMouse": 5199,
      "Ġdesired": 5200,
      "ĠPri": 5201,
      "SteerDecay": 5202,
      "Permission": 5203,
      "FSusAngle": 5204,
      "FSusDamping": 5205,
      "RSusAngle": 5206,
      "Overlay": 5207,
      "StickY": 5208,
      "commandName": 5209,
      ",#_": 5210,
      "Ancestry": 5211,
      "urchase": 5212,
      "CameraShakePresets": 5213,
      "CUp": 5214,
      "Janitor": 5215,
      "Other": 5216,
      "Original": 5217,
      "acc": 5218,
      "enable": 5219,
      "ched": 5220,
      "ĉĉĉĉĉĉ": 5221,
      "irar": 5222,
      "Ġvari": 5223,
      "Ġdoing": 5224,
      "Ġdescription": 5225,
      "SizePixel": 5226,
      "ĠMaterial": 5227,
      "Setup": 5228,
      "Ġ<<": 5229,
      "comput": 5230,
      "DISTANCE": 5231,
      "CharSn": 5232,
      "Ġspawn": 5233,
      "RSusDamping": 5234,
      "ostEffect": 5235,
      "ĊĠĠĠĠĠĠĠĠĠĠĠĠĠĠĠĠĠĠĠĠĠĠĠ": 5236,
      "Influence": 5237,
      "Ġsatisfied": 5238,
      "CharSnd": 5239,
      "/(": 5240,
      "PE": 5241,
      "UIs": 5242,
      "fine": 5243,
      "opt": 5244,
      "ĠCl": 5245,
      "Depth": 5246,
      "SizeX": 5247,
      "Exit": 5248,
      "Spark": 5249,
      "Lightning": 5250,
      "aveis": 5251,
      "callMethods": 5252,
      "ĠGyro": 5253,
      "Ġuses": 5254,
      ")*.": 5255,
      "7856": 5256,
      "TargetHumanoid": 5257,
      "ĠJeffTheKiller": 5258,
      "ĠInitialize": 5259,
      "Ġswitch": 5260,
      "OnClientEvent": 5261,
      ")^": 5262,
      "224": 5263,
      "229": 5264,
      "5755": 5265,
      "?)": 5266,
      "FWheelDensity": 5267,
      "RWheelDensity": 5268,
      "Super": 5269,
      "]/": 5270,
      "Ġ[\"": 5271,
      "ared": 5272,
      "itim": 5273,
      "Ġpattern": 5274,
      "Inner": 5275,
      "spLimit": 5276,
      "external": 5277,
      "Section": 5278,
      "ĠFlip": 5279,
      "FirstPerson": 5280,
      "callback": 5281,
      "Alpha": 5282,
      "Processed": 5283,
      "Ġ10000": 5284,
      "22008": 5285,
      "Ġneeded": 5286,
      "PrimaryPartCFrame": 5287,
      "AxleDensity": 5288,
      "984807": 5289,
      "Ġtimes": 5290,
      "84888": 5291,
      "Variaveis": 5292,
      "7875679": 5293,
      "Unequipped": 5294,
      "grade": 5295,
      "575584888": 5296,
      "externalProperties": 5297,
      "220087856": 5298,
      "787567914": 5299,
      "300": 5300,
      "Dampening": 5301,
      "FAnchorOffset": 5302,
      "Gap": 5303,
      "Muzzle": 5304,
      "RAnchorOffset": 5305,
      "Sword": 5306,
      "We": 5307,
      "aHuman": 5308,
      "eep": 5309,
      "fire": 5310,
      "ze": 5311,
      "Ġrad": 5312,
      "seat": 5313,
      "amm": 5314,
      "descendant": 5315,
      "Ġdrop": 5316,
      "Ġstats": 5317,
      "opper": 5318,
      "crease": 5319,
      "Ġsearch": 5320,
      "MinSteer": 5321,
      "ĠGetCurve": 5322,
      "uggest": 5323,
      "Ġoutput": 5324,
      "Notification": 5325,
      "GThrotShift": 5326,
      "HipHeight": 5327,
      "Whiz": 5328,
      "Activate": 5329,
      "finding": 5330,
      "THING": 5331,
      "Ġprimary": 5332,
      "ictim": 5333,
      "FWsBoneAngle": 5334,
      "FWsBoneLen": 5335,
      "RWsBoneAngle": 5336,
      "RWsBoneLen": 5337,
      "ttp": 5338,
      "Gauges": 5339,
      "--//////////////////////////////////////": 5340,
      "itimaHuman": 5341,
      ".\"": 5342,
      "667": 5343,
      "Em": 5344,
      "Figure": 5345,
      "MOT": 5346,
      "ai": 5347,
      "bit": 5348,
      "ged": 5349,
      "hing": 5350,
      "het": 5351,
      "larger": 5352,
      "volume": 5353,
      "step": 5354,
      "ending": 5355,
      "amber": 5356,
      "ential": 5357,
      "Parameters": 5358,
      "ableEvent": 5359,
      "Ġdir": 5360,
      "ĠTest": 5361,
      "Debug": 5362,
      "GetLevel": 5363,
      "))+(": 5364,
      "weapon": 5365,
      "ĠPSI": 5366,
      "ĠUIS": 5367,
      "MouseIcon": 5368,
      "Ġ>>": 5369,
      "806": 5370,
      "Scriptable": 5371,
      "toggle": 5372,
      "Ġdatastore": 5373,
      "TrackTask": 5374,
      "Results": 5375,
      "ocused": 5376,
      "LED": 5377,
      "Percent": 5378,
      "7616": 5379,
      "matched": 5380,
      "ĠController": 5381,
      "Ġammo": 5382,
      "Marker": 5383,
      "ĠDisplay": 5384,
      "âĸ¬âĸ¬âĸ¬âĸ¬": 5385,
      "ExplosiveData": 5386,
      "Computer": 5387,
      "ursor": 5388,
      "Provider": 5389,
      ".\")": 5390,
      "GC": 5391,
      "Meta": 5392,
      "Pcall": 5393,
      "afe": 5394,
      "clear": 5395,
      "jection": 5396,
      "scri": 5397,
      "style": 5398,
      "itter": 5399,
      "ĠRange": 5400,
      "ĠĠĠĠĠĠĠĠĠĠĠĠĠĠĠĠĠĠĠĠĠĠĠĠĠĠĠĠĠĠĠĠĠĠĠĠĠĠĠĠ": 5401,
      "ĠInter": 5402,
      "ithub": 5403,
      "ĠMult": 5404,
      "ObjectValue": 5405,
      "--------------------------------------------------------------------------------------------------------------------------------": 5406,
      "Ġexpected": 5407,
      "SusColor": 5408,
      "SusVisible": 5409,
      "SusRadius": 5410,
      "SusThickness": 5411,
      "SusCoil": 5412,
      "ChangedConn": 5413,
      "7012": 5414,
      "ABSThreshold": 5415,
      "Ġraycast": 5416,
      "ĠAttachment": 5417,
      "original": 5418,
      "32277012": 5419,
      "SusCoilCount": 5420,
      "Ed": 5421,
      "FBrakeForce": 5422,
      "NOW": 5423,
      "github": 5424,
      "ten": 5425,
      "ĉĊĉĊ": 5426,
      "inning": 5427,
      "orer": 5428,
      "ores": 5429,
      "unk": 5430,
      "debounce": 5431,
      "Ġbar": 5432,
      "Ġown": 5433,
      "Delete": 5434,
      "serve": 5435,
      "Ġ--{": 5436,
      "ĠisKicking": 5437,
      "InputChanged": 5438,
      "ĠWILL": 5439,
      "SteerSpeed": 5440,
      "parameter": 5441,
      "MainFrame": 5442,
      "gamepad": 5443,
      "647": 5444,
      "194": 5445,
      "userId": 5446,
      "gsub": 5447,
      "ĠEX": 5448,
      "plorer": 5449,
      "Ġ62": 5450,
      "Scope": 5451,
      "EffectData": 5452,
      "dropdownFrame": 5453,
      "menuFrame": 5454,
      "ShootType": 5455,
      "fFDr": 5456,
      "FWLgcyDensity": 5457,
      "transitionTime": 5458,
      "RWLgcyDensity": 5459,
      "ossible": 5460,
      "846293": 5461,
      "5144": 5462,
      "615": 5463,
      "=.": 5464,
      "Brio": 5465,
      "RBrakeForce": 5466,
      "Sent": 5467,
      "axis": 5468,
      "fwcount": 5469,
      "hand": 5470,
      "pool": 5471,
      "rwcount": 5472,
      "tec": 5473,
      "Ġthrow": 5474,
      "requ": 5475,
      "delta": 5476,
      "Ġplus": 5477,
      "ellow": 5478,
      "Ġregion": 5479,
      "Conver": 5480,
      "ĠRod": 5481,
      "ĠRAIN": 5482,
      "----------------------------------": 5483,
      "ĠDon": 5484,
      "Ġyield": 5485,
      "ScriptSignal": 5486,
      "quick": 5487,
      "HitSound": 5488,
      "TCSEnabled": 5489,
      "32132": 5490,
      "WsColor": 5491,
      "WsThickness": 5492,
      "WsBVisible": 5493,
      "ĠiconContainer": 5494,
      "knife": 5495,
      "ĠAuto": 5496,
      "ĠLocalPlayer": 5497,
      "Ġextra": 5498,
      "393986": 5499,
      "447846293": 5500,
      "65463": 5501,
      "761665463": 5502,
      "514432132": 5503,
      "tecode": 5504,
      "393986136": 5505,
      "*((": 5506,
      "699": 5507,
      "ACTION": 5508,
      "Ball": 5509,
      "found": 5510,
      "Ġlic": 5511,
      "ĠExplosiveData": 5512,
      "oney": 5513,
      "lasses": 5514,
      "uring": 5515,
      "Stro": 5516,
      "atest": 5517,
      "Ġ-=": 5518,
      "Ġ(...": 5519,
      "Recomput": 5520,
      "ĠTop": 5521,
      "ĠScaling": 5522,
      "Ġrepres": 5523,
      "Ġheld": 5524,
      "Ġori": 5525,
      "ĠARE": 5526,
      "PlayOn": 5527,
      "book": 5528,
      "Outer": 5529,
      "SusEnabled": 5530,
      "Ġparticle": 5531,
      "645": 5532,
      "ORK": 5533,
      "Launch": 5534,
      "ĠGetEnv": 5535,
      "RecoilPower": 5536,
      "ically": 5537,
      "TqSlope": 5538,
      "Ġapplied": 5539,
      "theme": 5540,
      "ĠVRNavigation": 5541,
      "thumbstickSize": 5542,
      "ĠConfigurations": 5543,
      "Alias": 5544,
      "legweld": 5545,
      "ReachedFunc": 5546,
      "Ġrawget": 5547,
      "Cylinder": 5548,
      "HpSlope": 5549,
      "ĠLaser": 5550,
      "Executions": 5551,
      "'))": 5552,
      "310": 5553,
      "Slider": 5554,
      "dist": 5555,
      "has": 5556,
      "ln": 5557,
      "ĊĠĠ": 5558,
      "Ġ88": 5559,
      "iter": 5560,
      "utdown": 5561,
      "imal": 5562,
      "Stat": 5563,
      "ĊĊĊĉ": 5564,
      "opups": 5565,
      "Ġ35": 5566,
      "MaxSpeed": 5567,
      "ImageRect": 5568,
      "esthet": 5569,
      "iveness": 5570,
      "2616": 5571,
      "NumberSequenceKeypoint": 5572,
      "Ġallows": 5573,
      "Libraries": 5574,
      "Constructs": 5575,
      "NextNumber": 5576,
      "hovering": 5577,
      "Dirty": 5578,
      "esthetics": 5579,
      "Air": 5580,
      "Aesthetics": 5581,
      "DRatio": 5582,
      "History": 5583,
      "gress": 5584,
      "Ġign": 5585,
      "ĠParticle": 5586,
      "Ġthumbstick": 5587,
      "utor": 5588,
      "andard": 5589,
      "Ġsomething": 5590,
      "Insert": 5591,
      "InControls": 5592,
      "Ġdropdown": 5593,
      "Mobile": 5594,
      "Ġbrio": 5595,
      "Ġrepl": 5596,
      "argToProcess": 5597,
      "Ġchassis": 5598,
      "ĠWe": 5599,
      "ĠDoor": 5600,
      "\"]:": 5601,
      "ĠRef": 5602,
      "Ġrand": 5603,
      "Ġsession": 5604,
      "Loadstring": 5605,
      "licks": 5606,
      "ArmWeld": 5607,
      "ĠConnect": 5608,
      "oooo": 5609,
      "uded": 5610,
      "waypoint": 5611,
      "Ġprevent": 5612,
      "--------------------[": 5613,
      "ĠoldAnim": 5614,
      "PlayingEmote": 5615,
      "--//--//--//--//": 5616,
      "Ġdirectly": 5617,
      "ĠBackground": 5618,
      "344": 5619,
      "928": 5620,
      ">)": 5621,
      "CAS": 5622,
      "Crouch": 5623,
      "LU": 5624,
      "RO": 5625,
      "TCount": 5626,
      "UL": 5627,
      "Your": 5628,
      "bg": 5629,
      "final": 5630,
      "option": 5631,
      "Ġrain": 5632,
      "stream": 5633,
      "rie": 5634,
      "Ġprompt": 5635,
      "Ġban": 5636,
      "ĠSc": 5637,
      "ĊĉĉĉĉĉĊĉĉĉ": 5638,
      "asic": 5639,
      "Ġ200": 5640,
      "ople": 5641,
      "Ġeas": 5642,
      "ĠSetup": 5643,
      "LESS": 5644,
      "ForwardAnim": 5645,
      "ĠMouseLock": 5646,
      "ĠtqTCS": 5647,
      "Ġcontinue": 5648,
      "ĠShowEffects": 5649,
      "Ġtakes": 5650,
      "GR": 5651,
      "kill": 5652,
      "nt": 5653,
      "Ð»": 5654,
      "Ġloc": 5655,
      "Ġ67": 5656,
      "atural": 5657,
      "require": 5658,
      "repl": 5659,
      "round": 5660,
      "(\"%": 5661,
      "Ġdid": 5662,
      "FrameReachedFunc": 5663,
      "Playerlist": 5664,
      "]]--": 5665,
      "Leave": 5666,
      "SteerInner": 5667,
      "sole": 5668,
      "207": 5669,
      "Img": 5670,
      "://\"..": 5671,
      "agdoll": 5672,
      "outerImage": 5673,
      "lectric": 5674,
      "ORE": 5675,
      "ABSEnabled": 5676,
      "LOW": 5677,
      "Beep": 5678,
      "placement": 5679,
      "ĠKNOW": 5680,
      "ĠcreateChat": 5681,
      "tipFrame": 5682,
      "8660": 5683,
      "Ġtemplate": 5684,
      "Snap": 5685,
      "SavedSettings": 5686,
      "ĠAny": 5687,
      "Blo": 5688,
      "CM": 5689,
      "Focused": 5690,
      "aa": 5691,
      "effect": 5692,
      "tn": 5693,
      "Ġ-----": 5694,
      "Ċĉĉĉĉĉĉĉĉĉĉĉĉ": 5695,
      "ĠfFD": 5696,
      "chem": 5697,
      "Ġmark": 5698,
      "container": 5699,
      "ĠHeat": 5700,
      "ĠFFlag": 5701,
      "ĠBody": 5702,
      "States": 5703,
      "Objects": 5704,
      "ĠDestroy": 5705,
      "eger": 5706,
      "Headlights": 5707,
      "198": 5708,
      "Ġgetfenv": 5709,
      "Ġleave": 5710,
      "frameName": 5711,
      "ĠrunSpeed": 5712,
      "BounceData": 5713,
      "ĠtransitionTime": 5714,
      "ĠactionName": 5715,
      "Secondary": 5716,
      "ĠbodyPartToFollow": 5717,
      "FindPartOnRayWithIgnoreList": 5718,
      "ĠUNLESS": 5719,
      "119": 5720,
      "684": 5721,
      "EX": 5722,
      "ND": 5723,
      "TER": 5724,
      "Warning": 5725,
      "axle": 5726,
      "limb": 5727,
      "Ġfn": 5728,
      "Ġfinish": 5729,
      "chi": 5730,
      "raight": 5731,
      "Ġbl": 5732,
      "Angular": 5733,
      "Deps": 5734,
      "PartColor": 5735,
      "\",.": 5736,
      "ĠPower": 5737,
      "ĠPerson": 5738,
      "ĠDet": 5739,
      "SteerMaxTorque": 5740,
      "250": 5741,
      "ommended": 5742,
      "177": 5743,
      "olding": 5744,
      "Ġnecessary": 5745,
      "Ġgets": 5746,
      "ClickToMove": 5747,
      "Ġenemy": 5748,
      "vehicle": 5749,
      "Ġzone": 5750,
      "Ġicons": 5751,
      "uckIn": 5752,
      "Options": 5753,
      "Package": 5754,
      "SavedTables": 5755,
      "Ġactually": 5756,
      "ĠReplicate": 5757,
      "Solver": 5758,
      "ImgOffset": 5759,
      "112": 5760,
      "={": 5761,
      "GUIs": 5762,
      "Hot": 5763,
      "Join": 5764,
      "Land": 5765,
      "UP": 5766,
      "bat": 5767,
      "cache": 5768,
      "ru": 5769,
      "tra": 5770,
      "Ġlag": 5771,
      "onEquipped": 5772,
      "Ġtra": 5773,
      "edback": 5774,
      "Ġfriction": 5775,
      "Ġsaved": 5776,
      "Ġwor": 5777,
      "Ġinformation": 5778,
      "Ġgot": 5779,
      "ĠRender": 5780,
      "istle": 5781,
      "ĠBrio": 5782,
      "996": 5783,
      "Ġitself": 5784,
      "ĠNote": 5785,
      "Ġsetfenv": 5786,
      "ĠSets": 5787,
      "Ġshow": 5788,
      "scape": 5789,
      "listener": 5790,
      "aving": 5791,
      "ĠĠĠĠĠĠĠĠĠĠĠĠĠĠĠĠĠĠĠĠĠĠĠĠĠĠĠĠĠĠĠĠĠĠĠĠĠĠĠĠĠĠĠĠĠĠĠĠĠĠĠĠĠĠĠĠĠĠĠĠĠĠĠĠĠĠĠĠĠĠĠĠĠĠĠĠĠĠĠĠĠĠĠĠĠĠĠĠĠĠĠĠĠĠĠĠĠĠĠĠĠĠĠĠĠĠĠĠĠĠĠĠĠĠĠĠĠĠĠĠĠĠĠĠĠĠĠĠĠĠĠĠĠĠĠĠĠĠĠĠĠĠĠĠĠĠĠĠĠĠĠĠĠĠĠĠĠĠĠĠĠĠĠĠĠĠĠĠĠĠĠĠĠĠĠĠĠĠĠĠĠĠĠĠĠĠĠĠĠĠĠĠ": 5792,
      "ĠThese": 5793,
      "JumpPower": 5794,
      "358": 5795,
      "CastBehavior": 5796,
      "locked": 5797,
      "Ġperform": 5798,
      "ides": 5799,
      "mitive": 5800,
      "ĠĠĠĠĠĠĠĠĠĠĠĠĠĠĠĠĠĠĠĠĠĠĠĠĠĠĠĠĠĠĠĠĠĠĠĠĠĠĠĠĠĠĠĠĠĠĠĠĠĠĠĠĠĠĠĠĠĠĠĠĠĠĠĠĠĠĠĠĠĠĠĠĠĠĠĠĠĠĠĠĠĠĠĠĠĠĠĠĠĠĠĠĠĠĠĠĠĠĠĠĠĠĠĠĠĠĠĠĠĠĠĠĠĠĠĠĠĠĠĠĠĠĠĠĠĠĠĠĠĠĠĠĠĠĠĠĠĠĠĠĠĠĠĠĠĠĠĠĠĠĠĠĠĠĠĠĠĠĠĠĠĠĠĠĠĠĠĠĠĠĠĠĠĠĠĠĠĠĠĠĠĠĠĠĠĠĠĠĠĠĠĠĠĠĠĠĠĠĠĠĠĠĠĠĠĠĠĠĠĠĠĠĠĠĠĠĠĠĠĠĠĠĠĠĠĠĠĠĠĠĠĠĠĠĠĠĠĠĠĠĠĠĠĠĠĠĠĠĠĠĠĠĠĠĠĠĠĠĠĠĠĠĠĠĠĠĠĠĠĠĠĠĠĠĠĠĠĠĠĠĠĠĠĠĠĠĠĠĠĠĠĠĠĠĠĠĠĠĠĠĠĠĠĠĠĠĠĠĠĠĠĠĠĠĠĠĠĠĠĠĠĠĠĠĠĠĠĠĠĠĠĠĠĠĠĠĠĠĠĠĠĠĠĠĠĠĠĠĠĠĠĠĠĠĠĠĠĠĠĠĠĠĠĠĠĠĠĠĠĠĠĠĠĠĠĠĠĠĠĠĠĠĠĠĠĠĠĠĠĠĠĠĠĠĠĠĠĠĠĠĠĠĠĠĠĠĠĠĠĠĠĠĠĠĠĠĠĠĠĠĠĠĠĠĠĠĠĠĠĠĠĠĠĠĠĠĠĠĠĠĠĠĠĠĠĠĠĠ": 5801,
      "Ġimage": 5802,
      "----------------------": 5803,
      "4924": 5804,
      "ĠLoaded": 5805,
      "byte": 5806,
      "ĠĠĠĠĠĠĠĠĠĠĠĠĠĠĠĠĠĠĠĠĠĠĠĠĠĠĠĠĠĠĠĠĠĠĠĠĠĠĠĠĠĠĠĠĠĠĠĠĠĠĠĠĠĠĠĠĠĠĠĠĠĠĠĠĠĠĠĠĠĠĠĠĠĠĠĠĠĠĠĠĠĠĠĠĠĠĠĠĠĠĠĠĠĠĠĠĠĠĠĠĠĠĠĠĠĠĠĠĠĠĠĠĠĠĠĠĠĠĠĠĠĠĠĠĠĠĠĠĠĠĠĠĠĠĠĠĠĠĠĠĠĠĠĠĠĠĠĠĠĠĠĠĠĠĠĠĠĠĠĠĠĠĠĠĠĠĠĠĠĠĠĠĠĠĠĠĠĠĠĠĠĠĠĠĠĠĠĠĠĠĠĠĠĠĠĠĠĠĠĠĠĠĠĠĠĠĠĠĠĠĠĠĠĠĠĠĠĠĠĠĠĠĠĠĠĠĠĠĠĠĠĠĠĠĠĠĠĠĠĠĠĠĠĠĠĠĠĠĠĠĠĠĠĠĠĠĠĠĠĠĠĠĠĠĠĠĠĠĠĠĠĠĠĠĠĠĠĠĠĠĠĠĠĠĠĠĠĠĠĠĠĠĠĠĠĠĠĠĠĠĠĠĠĠĠĠĠĠĠĠĠĠĠĠĠĠĠĠĠĠĠĠĠĠĠĠĠĠĠĠĠĠĠĠĠĠĠĠĠĠĠĠĠĠĠĠĠĠĠĠĠĠĠĠĠĠĠĠĠĠĠĠĠĠĠĠĠĠĠĠĠĠĠĠĠĠĠĠĠĠĠĠĠĠĠĠĠĠĠĠĠĠĠĠĠĠĠĠĠĠĠĠĠĠĠĠĠĠĠĠĠĠĠĠĠĠĠĠĠĠĠĠĠĠĠĠĠĠĠĠĠĠĠĠĠĠĠĠĠĠĠĠĠĠĠĠĠĠĠĠĠĠĠĠĠĠĠĠĠĠĠĠĠĠĠĠĠĠĠĠĠĠĠĠĠĠĠĠĠĠĠĠĠĠĠĠĠĠĠĠĠĠĠĠĠĠĠĠĠĠĠĠĠĠĠĠĠĠĠĠĠĠĠĠĠĠĠĠĠĠĠĠĠĠĠĠĠĠĠĠĠĠĠĠĠĠĠĠĠĠĠĠĠĠĠĠĠĠĠĠĠĠĠĠĠĠĠĠĠĠĠĠĠĠĠĠĠĠĠĠĠĠĠĠĠĠĠĠĠĠĠĠĠĠĠĠĠĠĠĠĠĠĠĠĠĠĠĠĠĠĠĠĠĠĠĠĠĠĠĠĠĠĠĠĠĠĠĠĠĠĠĠĠĠĠĠĠĠĠĠĠĠĠĠĠĠĠĠĠĠĠĠĠĠĠĠĠĠĠĠĠĠĠĠĠĠĠĠĠĠĠĠĠĠĠĠĠĠĠĠĠĠĠĠĠĠĠĠĠĠĠĠĠĠĠĠĠĠĠĠĠĠĠĠĠĠĠĠĠĠĠĠĠĠĠĠĠĠĠĠĠĠĠĠĠĠĠĠĠĠĠĠĠĠĠĠĠĠĠĠĠĠĠĠĠĠĠĠĠĠĠĠĠĠĠĠĠĠĠĠĠĠĠĠĠĠĠĠĠĠĠĠĠĠĠĠĠĠĠĠĠĠĠĠĠĠĠĠĠĠĠĠĠĠĠĠĠĠĠĠĠĠĠĠĠĠĠĠĠĠĠĠĠĠĠĠĠĠĠĠĠĠĠĠĠĠĠĠĠĠĠĠĠĠĠĠĠĠĠĠĠĠĠĠĠĠĠĠĠĠĠĠĠĠĠĠĠĠĠĠĠĠĠĠĠĠĠĠĠĠĠĠĠĠĠĠĠĠĠĠĠĠĠĠĠĠĠĠĠĠĠĠĠĠĠĠĠĠĠĠĠĠĠĠĠĠĠĠĠĠĠĠĠĠĠĠĠĠĠĠĠĠĠĠĠĠĠĠĠĠĠĠĠĠĠĠĠĠĠĠĠĠĠĠĠĠĠĠĠĠĠĠĠĠĠĠĠĠĠĠĠĠĠĠĠĠĠĠĠĠ": 5807,
      "ĠThumbstickFrame": 5808,
      "ĠnewCameraFocus": 5809,
      "Ġreduction": 5810,
      "Ġcutoff": 5811,
      "Ġkeep": 5812,
      "ĠTransparencyController": 5813,
      "requency": 5814,
      ">,": 5815,
      "PPH": 5816,
      "note": 5817,
      "prompt": 5818,
      "}},": 5819,
      "atter": 5820,
      "ĊĉĠĠĠ": 5821,
      "ingFrame": 5822,
      "ĠClear": 5823,
      "Ġwra": 5824,
      "osen": 5825,
      "Ġdel": 5826,
      "ĠDistance": 5827,
      "ither": 5828,
      "shot": 5829,
      "queue": 5830,
      "ĠColorSequenceKeypoint": 5831,
      "children": 5832,
      "Ġempty": 5833,
      "Switch": 5834,
      "ĠDOING": 5835,
      "ĠemoteNames": 5836,
      "vena": 5837,
      "Ġprimitive": 5838,
      "ĠRecoilPower": 5839,
      "ĠSETTINGS": 5840,
      "ĠModData": 5841,
      "ĠANYTHING": 5842,
      "012": 5843,
      "215": 5844,
      "Fly": 5845,
      "Music": 5846,
      "ball": 5847,
      "blow": 5848,
      "fill": 5849,
      "sent": 5850,
      "some": 5851,
      "status": 5852,
      "Ġwaypoint": 5853,
      "rawe": 5854,
      "Ġblack": 5855,
      "ĠTurbo": 5856,
      "adge": 5857,
      "ĠSeat": 5858,
      "Ġreset": 5859,
      "Ġvholder": 5860,
      "Ġstat": 5861,
      "DataPack": 5862,
      "ffic": 5863,
      "derator": 5864,
      "SteerD": 5865,
      "SteerP": 5866,
      "SteerOuter": 5867,
      "ĠIS": 5868,
      "MaxDistance": 5869,
      "Ġ''": 5870,
      "----------------------------------------------------------------------": 5871,
      "169": 5872,
      "Ġshift": 5873,
      "TouchEnabled": 5874,
      "ĠError": 5875,
      "ĠStamina": 5876,
      "textures": 5877,
      "Ġvec": 5878,
      "Ġwalking": 5879,
      "UnbindFrom": 5880,
      "EmitterSize": 5881,
      "ictory": 5882,
      "PhysicsSolver": 5883,
      "remoteProperty": 5884,
      "ĠBeamClone": 5885,
      "ĠInterface": 5886,
      "ĠĠĠĠĠĠĠĠĠĠĠĠĠĠĠĠĠĠĠĠĠĠĠĠĠĠĠĠĠĠĠĠĠĠĠĠĠĠĠĠĠĠĠĠĠĠĠĠĠĠĠĠĠĠĠĠĠĠĠĠĠĠĠĠĠĠĠĠĠĠĠĠĠĠĠĠĠĠĠĠĠĠĠĠĠĠĠĠĠĠĠĠĠĠĠĠĠĠĠĠĠĠĠĠĠĠĠĠĠĠĠĠĠĠĠĠĠĠĠĠĠĠĠĠĠĠĠĠĠĠĠĠĠĠĠĠĠĠĠĠĠĠĠĠĠĠĠĠĠĠĠĠĠĠĠĠĠĠĠĠĠĠĠĠĠĠĠĠĠĠĠĠĠĠĠĠĠĠĠĠĠĠĠĠĠĠĠĠĠĠĠĠĠĠĠĠĠĠĠĠĠĠĠĠĠĠĠĠĠĠĠĠĠĠĠĠĠĠĠĠĠĠĠĠĠĠĠĠĠĠĠĠĠĠĠĠĠĠĠĠĠĠĠĠĠĠĠĠĠĠĠĠĠĠĠĠĠĠĠĠĠĠĠĠĠĠĠĠĠĠĠĠĠĠĠĠĠĠĠĠĠĠĠĠĠĠĠĠĠĠĠĠĠĠĠĠĠĠĠĠĠĠĠĠĠĠĠĠĠĠĠĠĠĠĠĠĠĠĠĠĠĠĠĠĠĠĠĠĠĠĠĠĠĠĠĠĠĠĠĠĠĠĠĠĠĠĠĠĠĠĠĠĠĠĠĠĠĠĠĠĠĠĠĠĠĠĠĠĠĠĠĠĠĠĠĠĠĠĠĠĠĠĠĠĠĠĠĠĠĠĠĠĠĠĠĠĠĠĠĠĠĠĠĠĠĠĠĠĠĠĠĠĠĠĠĠĠĠĠĠĠĠĠĠĠĠĠĠĠĠĠĠĠĠĠĠĠĠĠĠĠĠĠĠĠĠĠĠĠĠĠĠĠĠĠĠĠĠĠĠĠĠĠĠĠĠĠĠĠĠĠĠĠĠĠĠĠĠĠĠĠĠĠĠĠĠĠĠĠĠĠĠĠĠĠĠĠĠĠĠĠĠĠĠĠĠĠĠĠĠĠĠĠĠĠĠĠĠĠĠĠĠĠĠĠĠĠĠĠĠĠĠĠĠĠĠĠĠĠĠĠĠĠĠĠĠĠĠĠĠĠĠĠĠĠĠĠĠĠĠĠĠĠĠĠĠĠĠĠĠĠĠĠĠĠĠĠĠĠĠĠĠĠĠĠĠĠĠĠĠĠĠĠĠĠĠĠĠĠĠĠĠĠĠĠĠĠĠĠĠĠĠĠĠĠĠĠĠĠĠĠĠĠĠĠĠĠĠĠĠĠĠĠĠĠĠĠĠĠĠĠĠĠĠĠĠĠĠĠĠĠĠĠĠĠĠĠĠĠĠĠĠĠĠĠĠĠĠĠĠĠĠĠĠĠĠĠĠĠĠĠĠĠĠĠĠĠĠĠĠĠĠĠĠĠĠĠĠĠĠĠĠĠĠĠĠĠĠĠĠĠĠĠĠĠĠĠĠĠĠĠĠĠĠĠĠĠĠĠĠĠĠĠĠĠĠĠĠĠĠĠĠĠĠĠĠĠĠĠĠĠĠĠĠĠĠĠĠĠĠĠĠĠĠĠĠĠĠĠĠĠĠĠĠĠĠĠĠĠĠĠĠĠĠĠĠĠĠĠĠĠĠĠĠĠĠĠĠĠĠĠĠĠĠĠĠĠĠĠĠĠĠĠĠĠĠĠĠĠĠĠĠĠĠĠĠĠĠĠĠĠĠĠĠĠĠĠĠĠĠĠĠĠĠĠĠĠĠĠĠĠĠĠĠĠĠĠĠĠĠĠĠĠĠĠĠĠĠĠĠĠĠĠĠĠĠĠĠĠĠĠĠĠĠĠĠĠĠĠĠĠĠĠĠĠĠĠĠĠĠĠĠĠĠĠĠĠĠĠĠĠĠĠĠĠĠĠĠĠĠĠĠĠĠĠĠĠĠĠĠĠĠĠĠĠĠĠĠĠĠĠĠĠĠĠĠĠĠĠĠĠĠĠĠĠĠĠĠĠĠĠĠĠĠĠĠĠĠĠĠĠĠĠĠĠĠĠĠĠĠĠĠĠĠĠĠĠĠĠĠĠĠĠĠĠĠĠĠĠĠ": 5887,
      "rawequal": 5888,
      "DataPacket": 5889,
      "096": 5890,
      "Missing": 5891,
      "Scaled": 5892,
      "Tab": 5893,
      "WN": 5894,
      "cli": 5895,
      "vgear": 5896,
      "Ð¼": 5897,
      "Ġlet": 5898,
      "Ġtrove": 5899,
      "loat": 5900,
      "stac": 5901,
      "Ġfree": 5902,
      "ĠcTq": 5903,
      "Ġcollision": 5904,
      "Ġ18": 5905,
      "Res": 5906,
      "Ġobservable": 5907,
      "Death": 5908,
      "SteerRight": 5909,
      "SteerLeft": 5910,
      "ĠOpen": 5911,
      "ouble": 5912,
      "Example": 5913,
      "ublic": 5914,
      "Ġatt": 5915,
      "READ": 5916,
      "Ġproduct": 5917,
      "Ġconfiguration": 5918,
      "Ġeverything": 5919,
      "SCP": 5920,
      "Replicate": 5921,
      "939692616": 5922,
      "Ġcancelled": 5923,
      "White": 5924,
      "Stroke": 5925,
      "UnbindFromRenderStep": 5926,
      "075": 5927,
      "Billboard": 5928,
      "Case": 5929,
      "Floor": 5930,
      "Kn": 5931,
      "Mem": 5932,
      "Natural": 5933,
      "UM": 5934,
      "hip": 5935,
      "king": 5936,
      "oice": 5937,
      "ÑĮ": 5938,
      "erp": 5939,
      "Ġsuspension": 5940,
      "abling": 5941,
      "Ġ\"_": 5942,
      "Ġmiddle": 5943,
      "Ġ11": 5944,
      "Ġappear": 5945,
      "Ġgrip": 5946,
      "ToWorld": 5947,
      "InputService": 5948,
      "ĠWORK": 5949,
      "ĠonEquipped": 5950,
      "Sprint": 5951,
      "ĠNPC": 5952,
      "vely": 5953,
      "163": 5954,
      "VisibleTime": 5955,
      "ĠThrottle": 5956,
      "onential": 5957,
      "Actions": 5958,
      "struction": 5959,
      "Ġnames": 5960,
      "Ġleaderstats": 5961,
      "values": 5962,
      "ĠanimName": 5963,
      "Detection": 5964,
      "HeightScale": 5965,
      "Ġgood": 5966,
      "Whistle": 5967,
      "ĠtweenService": 5968,
      "Ġhandles": 5969,
      "ĠBaseCharacterController": 5970,
      "imiter": 5971,
      "flate": 5972,
      "FakePlayer": 5973,
      "Entity": 5974,
      "LightningData": 5975,
      "uggestion": 5976,
      ")%": 5977,
      "484": 5978,
      "Goal": 5979,
      "Hello": 5980,
      "HSV": 5981,
      "Self": 5982,
      "TuckIn": 5983,
      "UST": 5984,
      "[#": 5985,
      "ause": 5986,
      "js": 5987,
      "mi": 5988,
      "pr": 5989,
      "pch": 5990,
      "pass": 5991,
      "Ġì": 5992,
      "Ġcli": 5993,
      "elmet": 5994,
      "Ġaim": 5995,
      "exist": 5996,
      "Session": 5997,
      "ĠInfo": 5998,
      "ĠBias": 5999,
      "154": 6000,
      "1565": 6001,
      "TextSize": 6002,
      "Ġlg": 6003,
      "Ġ5000": 6004,
      "(-((": 6005,
      "Ġ32": 6006,
      "MaxForce": 6007,
      "UpdateGui": 6008,
      "ThrotP": 6009,
      "133": 6010,
      "TouchMovementMode": 6011,
      "ParticleEmitter": 6012,
      "ĠRaycast": 6013,
      "udness": 6014,
      "MSteerExp": 6015,
      "Ġmakes": 6016,
      "Ġupdates": 6017,
      "ghostEffect": 6018,
      "heightOffset": 6019,
      "22825": 6020,
      "pchumanoid": 6021,
      "Closed": 6022,
      "Lua": 6023,
      "NOT": 6024,
      "SER": 6025,
      "Tabs": 6026,
      "bullet": 6027,
      "Ð´": 6028,
      "Ġes": 6029,
      "Ġquick": 6030,
      "allow": 6031,
      "Ġfake": 6032,
      "Ġcst": 6033,
      "Ġspecial": 6034,
      "Ġworld": 6035,
      "Ġdont": 6036,
      "Loudness": 6037,
      "Ġdet": 6038,
      "TypeArea": 6039,
      "ĠMessage": 6040,
      "SetCoreGuiEnabled": 6041,
      "ards": 6042,
      "ressor": 6043,
      "ĠDev": 6044,
      "gree": 6045,
      "iconContainer": 6046,
      "OUT": 6047,
      "SurfaceType": 6048,
      "checker": 6049,
      "ĠCreates": 6050,
      "ĠTouchJump": 6051,
      "ReloadAnim": 6052,
      "ReturnSpeed": 6053,
      "ĠCalculate": 6054,
      "Ġformat": 6055,
      "ĠOuter": 6056,
      "Location": 6057,
      "ttpService": 6058,
      "chema": 6059,
      "\".": 6060,
      ".)": 6061,
      "011": 6062,
      "Duration": 6063,
      "FDiffLockThres": 6064,
      "FDiffSlipThres": 6065,
      "PRI": 6066,
      "RDiffLockThres": 6067,
      "RDiffSlipThres": 6068,
      "Wander": 6069,
      "ZIndex": 6070,
      "ph": 6071,
      "qPlot": 6072,
      "zen": 6073,
      "ĠFrame": 6074,
      "--////////////////////////": 6075,
      "Ġtrigger": 6076,
      "unique": 6077,
      "stant": 6078,
      "rozen": 6079,
      "uracy": 6080,
      "Ġsmo": 6081,
      "Ġsay": 6082,
      "ĠCont": 6083,
      "adding": 6084,
      "ĠLayout": 6085,
      "ĠHor": 6086,
      "ĠFade": 6087,
      "Idx": 6088,
      "--------------------------------------------------------------------": 6089,
      "Ġseg": 6090,
      "604": 6091,
      "AnimationId": 6092,
      "Listener": 6093,
      "ĠPlayerGui": 6094,
      "ORITY": 6095,
      "DescendantAddedConn": 6096,
      "DescendantRemovingConn": 6097,
      "radius": 6098,
      "OUCH": 6099,
      "Ġlisteners": 6100,
      "captionOverline": 6101,
      "resolve": 6102,
      "FreeFalling": 6103,
      "ĠGamepad": 6104,
      "FadeTime": 6105,
      "swer": 6106,
      "ĠcurrentAnimSpeed": 6107,
      "Ġexecute": 6108,
      "MyComponent": 6109,
      "AzimuthRad": 6110,
      "RunAfterPlugins": 6111,
      "ĠtipFrame": 6112,
      "SnapTracking": 6113,
      "stacle": 6114,
      "PRIORITY": 6115,
      "\">": 6116,
      "'),": 6117,
      ")==": 6118,
      ")})": 6119,
      "FB": 6120,
      "Rel": 6121,
      "Slice": 6122,
      "Sense": 6123,
      "Yield": 6124,
      "aut": 6125,
      "eople": 6126,
      "targ": 6127,
      "vl": 6128,
      "xes": 6129,
      "ĠĊĊ": 6130,
      "ermine": 6131,
      "Ġtarg": 6132,
      "Ġtimer": 6133,
      "inv": 6134,
      "arine": 6135,
      "Ġcurve": 6136,
      "Ġmight": 6137,
      "ĠCode": 6138,
      "Ġduring": 6139,
      "Ġblow": 6140,
      "Ġocc": 6141,
      "GetData": 6142,
      "ĠisOpen": 6143,
      "tail": 6144,
      "Ġdegree": 6145,
      "ĠPath": 6146,
      "ĠHT": 6147,
      "ĠInner": 6148,
      "ĠgameRules": 6149,
      "Speedo": 6150,
      "Sets": 6151,
      "ĠON": 6152,
      "Pointer": 6153,
      "Ġupdated": 6154,
      "Ġuseful": 6155,
      "listeners": 6156,
      "Ġattach": 6157,
      "TCSLimit": 6158,
      "TCSThreshold": 6159,
      "TCSGradient": 6160,
      "Messages": 6161,
      "IDs": 6162,
      "SurfaceGui": 6163,
      "Ġmeans": 6164,
      "SPARE": 6165,
      "ĠConfiguration": 6166,
      "LeftLeanD": 6167,
      "AngularVelocity": 6168,
      "#_": 6169,
      "EED": 6170,
      "Msg": 6171,
      "nick": 6172,
      "sue": 6173,
      "yfill": 6174,
      "Ġerr": 6175,
      "loop": 6176,
      "Ġfgc": 6177,
      "olyfill": 6178,
      "Ġwon": 6179,
      "Ġregister": 6180,
      "Ġopt": 6181,
      "Ġhand": 6182,
      "PlayerRemoving": 6183,
      "ĠRain": 6184,
      "ĠHealth": 6185,
      "ĠInflate": 6186,
      "ĠFind": 6187,
      "Characters": 6188,
      "carry": 6189,
      "Ġlimb": 6190,
      "8028": 6191,
      "Ġcannot": 6192,
      "Ġneck": 6193,
      "HitCharSnd": 6194,
      "306": 6195,
      "355": 6196,
      "Whine": 6197,
      "371": 6198,
      "RIG": 6199,
      "IntValue": 6200,
      "myHuman": 6201,
      "reamable": 6202,
      "ABLES": 6203,
      "Sirens": 6204,
      "Tilt": 6205,
      "Write": 6206,
      "]+": 6207,
      "ĠKeys": 6208,
      "alignment": 6209,
      "Ġtry": 6210,
      "Ġclear": 6211,
      "Ġpack": 6212,
      "Ġpossible": 6213,
      "Received": 6214,
      "argument": 6215,
      "),(": 6216,
      "eraction": 6217,
      "ventory": 6218,
      "SetPrimaryPartCFrame": 6219,
      "MaxExt": 6220,
      "clude": 6221,
      "engine": 6222,
      "toObjectSpace": 6223,
      "285": 6224,
      "19248": 6225,
      "Makes": 6226,
      "Ġmaximum": 6227,
      "Ġanimations": 6228,
      "****": 6229,
      "Ġdisable": 6230,
      "..\"\\": 6231,
      "SurfaceLight": 6232,
      "018028": 6233,
      "Ġresolved": 6234,
      "29572": 6235,
      "ĠSelection": 6236,
      "Ġinterface": 6237,
      "osmeticBulletObject": 6238,
      "Ġviewport": 6239,
      "Bytecode": 6240,
      "ĠluaK": 6241,
      "99999994": 6242,
      "ĠrepeatCount": 6243,
      "atarEd": 6244,
      "ĠsmArrowSize": 6245,
      "654529572": 6246,
      "ĠsmallButNotZero": 6247,
      "edbackMain": 6248,
      "19248806": 6249,
      "atarEditor": 6250,
      "213": 6251,
      "CAL": 6252,
      "Hide": 6253,
      "KV": 6254,
      "Mat": 6255,
      "Rbx": 6256,
      "Ragdoll": 6257,
      "Slicks": 6258,
      "ci": 6259,
      "ping": 6260,
      "sRunning": 6261,
      "ĠName": 6262,
      "ĠMode": 6263,
      "itnick": 6264,
      "Ġfired": 6265,
      "Ġcomm": 6266,
      "destination": 6267,
      "etplace": 6268,
      "ĠCam": 6269,
      "ĠCommand": 6270,
      "Real": 6271,
      "Release": 6272,
      "ĠTuning": 6273,
      "ĠWear": 6274,
      "ĠFree": 6275,
      "ĠFigure": 6276,
      "ĠReset": 6277,
      "ĠOther": 6278,
      "Imp": 6279,
      "172": 6280,
      "OffRatio": 6281,
      "Ġshooting": 6282,
      "BackAnim": 6283,
      "RunSpeed": 6284,
      ")*_": 6285,
      "plica": 6286,
      "Ġasset": 6287,
      "785": 6288,
      "LockRatio": 6289,
      "DIT": 6290,
      "Ġnumbers": 6291,
      "SION": 6292,
      "tqTCS": 6293,
      "bient": 6294,
      "Ġzoom": 6295,
      "tweenInfo": 6296,
      "captionContainer": 6297,
      "ADS": 6298,
      "FilterType": 6299,
      "WeaponTool": 6300,
      "curAzimuthRad": 6301,
      "AfterPlugins": 6302,
      "Ġexponential": 6303,
      "Blend": 6304,
      "Ġrawset": 6305,
      "ElevationRad": 6306,
      "spinRatio": 6307,
      "Recompute": 6308,
      "ĠHTTP": 6309,
      ".]": 6310,
      "Ass": 6311,
      "Away": 6312,
      "BX": 6313,
      "Between": 6314,
      "Bans": 6315,
      "CC": 6316,
      "Glass": 6317,
      "Hook": 6318,
      "RWD": 6319,
      "TO": 6320,
      "goal": 6321,
      "render": 6322,
      "ĠMasterControl": 6323,
      "onActivated": 6324,
      "Ġtrello": 6325,
      "inverse": 6326,
      "ately": 6327,
      "riend": 6328,
      "-------------------": 6329,
      "Ġnpc": 6330,
      "Require": 6331,
      "ĠTOUCH": 6332,
      "Conf": 6333,
      "Ġhe": 6334,
      "PlayerList": 6335,
      "PlayerScripts": 6336,
      "ĠAgg": 6337,
      "Ġnotice": 6338,
      "KeyUp": 6339,
      "mod": 6340,
      "ments": 6341,
      "Colors": 6342,
      "Ġmag": 6343,
      "MagCount": 6344,
      "ressiveness": 6345,
      "ĠgetHumanoid": 6346,
      "Limb": 6347,
      "inputState": 6348,
      "Ġnamed": 6349,
      "6899": 6350,
      "000000": 6351,
      "Pressure": 6352,
      "ĠtagHumanoid": 6353,
      "ĠPGSPhysicsSolver": 6354,
      "content": 6355,
      "umbpadFrame": 6356,
      "styles": 6357,
      "ToWorldSpace": 6358,
      "ĠAggressiveness": 6359,
      "ĠPGSPhysicsSolverEnabled": 6360,
      "Help": 6361,
      "Oper": 6362,
      "Row": 6363,
      "Teleport": 6364,
      "WE": 6365,
      "kip": 6366,
      "por": 6367,
      "pull": 6368,
      "arr": 6369,
      "ansi": 6370,
      "utscene": 6371,
      "ĠsPos": 6372,
      "Stage": 6373,
      "Ġwindow": 6374,
      "(\"[": 6375,
      "Ġhook": 6376,
      "inter": 6377,
      "indic": 6378,
      "ĠRBX": 6379,
      "Ġstep": 6380,
      "Ġissue": 6381,
      "ModeEnabled": 6382,
      "ĠonActivated": 6383,
      "Ġconf": 6384,
      "Ġelasticity": 6385,
      "AnimationID": 6386,
      "TouchMoved": 6387,
      "Completed": 6388,
      "assetId": 6389,
      "Wheelie": 6390,
      "BulletHole": 6391,
      "Ġspace": 6392,
      "ĠString": 6393,
      "ARI": 6394,
      "Ġactivate": 6395,
      "SpinData": 6396,
      "EmitCount": 6397,
      "SPEED": 6398,
      "####": 6399,
      "Ġlimits": 6400,
      "Alive": 6401,
      "LimitsEnabled": 6402,
      "CosmeticBulletObject": 6403,
      "Visibility": 6404,
      "BorderSizePixel": 6405,
      "Clipping": 6406,
      "clutchP": 6407,
      "DampeningObject": 6408,
      "findingService": 6409,
      "ĠMouseLockController": 6410,
      "Ġfinishing": 6411,
      "ansio": 6412,
      "268": 6413,
      "7248": 6414,
      "IR": 6415,
      "Single": 6416,
      "Termin": 6417,
      "cframe": 6418,
      "mes": 6419,
      "world": 6420,
      "~!": 6421,
      "ĉĊĉĉĉ": 6422,
      "Ġct": 6423,
      "Ġenter": 6424,
      "erly": 6425,
      "alert": 6426,
      "anel": 6427,
      "neck": 6428,
      "inger": 6429,
      "Ġfinished": 6430,
      "Ġco": 6431,
      "Ġcur": 6432,
      "Ġcached": 6433,
      "Chance": 6434,
      "charg": 6435,
      "Ġdebounce": 6436,
      "ĠWalk": 6437,
      "ayer": 6438,
      "Ġbehavior": 6439,
      "ĠFolder": 6440,
      "ĠFastCast": 6441,
      "StateEnabled": 6442,
      "Ġcons": 6443,
      "Ġlon": 6444,
      "ĠnewValue": 6445,
      "2021": 6446,
      "MainGui": 6447,
      "Ġ400": 6448,
      "298": 6449,
      "RESH": 6450,
      "itional": 6451,
      "08715": 6452,
      "Ġroblox": 6453,
      "AimPart": 6454,
      "Rocket": 6455,
      "Ġactions": 6456,
      "Ġrotate": 6457,
      "Ġcontains": 6458,
      "CanvasPosition": 6459,
      "PenetrationData": 6460,
      "ĠWeaponInHand": 6461,
      "ĠrollAnimation": 6462,
      "lapsed": 6463,
      "scribe": 6464,
      "Ġorientation": 6465,
      "Ġ6700": 6466,
      "866025": 6467,
      "996194": 6468,
      "220": 6469,
      "529": 6470,
      "ADE": 6471,
      "AGE": 6472,
      "Dictionary": 6473,
      "Full": 6474,
      "NPC": 6475,
      "Patrol": 6476,
      "Wedge": 6477,
      "lines": 6478,
      "surface": 6479,
      "slider": 6480,
      "ĠState": 6481,
      "--\"": 6482,
      "erge": 6483,
      "search": 6484,
      "stress": 6485,
      "developer": 6486,
      "Ġday": 6487,
      "Ġbounds": 6488,
      "Ġai": 6489,
      "ĠTurn": 6490,
      "ador": 6491,
      "Ġopts": 6492,
      "Destination": 6493,
      "See": 6494,
      "ĠWeld": 6495,
      "Should": 6496,
      "ĠIgnore": 6497,
      "ButtonY": 6498,
      "Ġequal": 6499,
      "ClientLoader": 6500,
      "179": 6501,
      "Ġsec": 6502,
      "====================": 6503,
      "Under": 6504,
      "ĠPlayerData": 6505,
      "ĠclientLoader": 6506,
      "ĠStance": 6507,
      "ĠExit": 6508,
      "ĠExample": 6509,
      "99999999": 6510,
      "toolAnim": 6511,
      "ĠForces": 6512,
      "codes": 6513,
      "Arguments": 6514,
      "ĠChanges": 6515,
      "legansio": 6516,
      "noCache": 6517,
      "Ġeasingdir": 6518,
      "Ġeasingstyles": 6519,
      "Initialize": 6520,
      "Whitelist": 6521,
      "Record": 6522,
      "cheduler": 6523,
      "Empty": 6524,
      "ComputerMovementMode": 6525,
      "Ġeasingdirs": 6526,
      ")-_": 6527,
      "727": 6528,
      ">_": 6529,
      "Ag": 6530,
      "BH": 6531,
      "Purchase": 6532,
      "Something": 6533,
      "cos": 6534,
      "drag": 6535,
      "rwd": 6536,
      "sPos": 6537,
      "ux": 6538,
      "--*": 6539,
      "eral": 6540,
      "Ġthread": 6541,
      "cel": 6542,
      "Ġfeature": 6543,
      "etter": 6544,
      "rash": 6545,
      "(\"~!": 6546,
      "Ġindic": 6547,
      "Remotes": 6548,
      "ĠSlash": 6549,
      "ĠLO": 6550,
      "ĠisVisible": 6551,
      "ĠisSmall": 6552,
      "Ġdelete": 6553,
      "Ġbegin": 6554,
      "ĠDynamic": 6555,
      "\"][\"": 6556,
      "shoot": 6557,
      "Ġeither": 6558,
      "104": 6559,
      "308488": 6560,
      "Ġparameter": 6561,
      "9638": 6562,
      "Ġtools": 6563,
      "Ġ50000": 6564,
      "Tags": 6565,
      "FormatPlayer": 6566,
      "DPadUp": 6567,
      "PlatformStanding": 6568,
      "6159638": 6569,
      "Blox": 6570,
      "RIGHT": 6571,
      "724860": 6572,
      "ĠisSmallScreen": 6573,
      "Bolting": 6574,
      "Cell": 6575,
      "Drop": 6576,
      "Double": 6577,
      "FPreCompress": 6578,
      "FCompressLim": 6579,
      "FExtensionLim": 6580,
      "GMode": 6581,
      "MIN": 6582,
      "Old": 6583,
      "Post": 6584,
      "RPreCompress": 6585,
      "RCompressLim": 6586,
      "RExtensionLim": 6587,
      "Victory": 6588,
      "zy": 6589,
      "Ġet": 6590,
      "ĠQueue": 6591,
      "nel": 6592,
      "Ġcframe": 6593,
      "Ġpeople": 6594,
      "elly": 6595,
      "Ġsim": 6596,
      "Ġ\",": 6597,
      "Ġwidth": 6598,
      "rait": 6599,
      "ĠaRPM": 6600,
      "ird": 6601,
      "Ġhigh": 6602,
      "Deselected": 6603,
      "Ġgyro": 6604,
      "hest": 6605,
      "shooting": 6606,
      "RightGrip": 6607,
      "ĠInstances": 6608,
      "Ġmass": 6609,
      "2018": 6610,
      "TweenSize": 6611,
      "Backward": 6612,
      "ONIS": 6613,
      "BaseCamera": 6614,
      "776": 6615,
      "Transform": 6616,
      "Chatted": 6617,
      "Binded": 6618,
      "Assets": 6619,
      "111": 6620,
      "ĠÐ²": 6621,
      "ĠPlayersService": 6622,
      "Ġpaths": 6623,
      "calculated": 6624,
      "ĠINSIDE": 6625,
      "THRESH": 6626,
      "proxy": 6627,
      "Stances": 6628,
      "Ġdetermine": 6629,
      "ĠcastDataPacket": 6630,
      "Ġcause": 6631,
      "Ġinterse": 6632,
      "ĠAND": 6633,
      "NetworkServer": 6634,
      "ĠthemeData": 6635,
      "ĠSTART": 6636,
      "chatBubbleMain": 6637,
      "chatBubbleTail": 6638,
      "342020124": 6639,
      "etplaceService": 6640,
      "Bool": 6641,
      "Fog": 6642,
      "Finish": 6643,
      "Gained": 6644,
      "Keep": 6645,
      "RStickX": 6646,
      "RStickY": 6647,
      "Sit": 6648,
      "Slide": 6649,
      "US": 6650,
      "distance": 6651,
      "dating": 6652,
      "fth": 6653,
      "ian": 6654,
      "length": 6655,
      "sort": 6656,
      "}`)": 6657,
      "Ġfar": 6658,
      "otential": 6659,
      "\")~=": 6660,
      "omet": 6661,
      "ToPart": 6662,
      ")));": 6663,
      "ĠDown": 6664,
      "ĉĉĉĊĉĉ": 6665,
      "883": 6666,
      "ĠGener": 6667,
      "AutoStart": 6668,
      "AutoRotate": 6669,
      "ĠcurrentMoveVector": 6670,
      "IconSize": 6671,
      "Ġ||": 6672,
      "barPlus": 6673,
      "ĠHumanoidRootPart": 6674,
      "Reduce": 6675,
      "Utility": 6676,
      "-----------------------": 6677,
      "ÐµÑĢ": 6678,
      "ĠHitPartColor": 6679,
      "haviour": 6680,
      "Ġscr": 6681,
      "Invalid": 6682,
      "Ġconditions": 6683,
      "ĠConnections": 6684,
      "Ġreferences": 6685,
      "Ġelements": 6686,
      "Ġsimple": 6687,
      "ĠRootPart": 6688,
      "Ġresolves": 6689,
      "fthip": 6690,
      ")-.": 6691,
      "116": 6692,
      "=\"..": 6693,
      "Cat": 6694,
      "CBack": 6695,
      "KP": 6696,
      "Layer": 6697,
      "jector": 6698,
      "ntqPlot": 6699,
      "pri": 6700,
      "sl": 6701,
      "xnt": 6702,
      "enc": 6703,
      "Ġtkn": 6704,
      "stop": 6705,
      "rocket": 6706,
      "urador": 6707,
      "newSound": 6708,
      "Ġwell": 6709,
      "setmetatable": 6710,
      "Shad": 6711,
      "ĠBolt": 6712,
      "TextStroke": 6713,
      "ButtonX": 6714,
      "ControlModules": 6715,
      "ured": 6716,
      "RunLast": 6717,
      ")/(.": 6718,
      "Ġalways": 6719,
      "ĠcurrentAnimTrack": 6720,
      "CurrentNode": 6721,
      "ĠhitPart": 6722,
      "hitPart": 6723,
      "Transmission": 6724,
      "cape": 6725,
      "BindableEvent": 6726,
      "DebrisData": 6727,
      "ĠAllow": 6728,
      "Ġoverride": 6729,
      "661": 6730,
      "ĠStarter": 6731,
      "Snapping": 6732,
      "Triggered": 6733,
      "GlobalUpdates": 6734,
      "Ġdefined": 6735,
      "ruster": 6736,
      "Two": 6737,
      "Ġlonger": 6738,
      "xnturador": 6739,
      "/\"": 6740,
      "AI": 6741,
      "AP": 6742,
      "BP": 6743,
      "BRA": 6744,
      "Btn": 6745,
      "Dpad": 6746,
      "Lifetime": 6747,
      "Tap": 6748,
      "dr": 6749,
      "fall": 6750,
      "lity": 6751,
      "lunge": 6752,
      "lifts": 6753,
      "medi": 6754,
      "olean": 6755,
      "subject": 6756,
      "view": 6757,
      "}`,": 6758,
      "Ġ^": 6759,
      "ĠStep": 6760,
      "alCamera": 6761,
      "reset": 6762,
      "Ġfield": 6763,
      "Information": 6764,
      "ighest": 6765,
      "Really": 6766,
      "Ġrecursive": 6767,
      "ully": 6768,
      "Ġour": 6769,
      "Ġvictim": 6770,
      "Ġguis": 6771,
      "setfenv": 6772,
      "asses": 6773,
      ")))))": 6774,
      "ĠPeak": 6775,
      "ĠBrake": 6776,
      "ĠRegister": 6777,
      "RightHand": 6778,
      "GuiService": 6779,
      "ClientOrchestration": 6780,
      "ServerScriptService": 6781,
      "boolean": 6782,
      "8059": 6783,
      "Brakes": 6784,
      "50999": 6785,
      "160": 6786,
      "ortal": 6787,
      "284": 6788,
      "Ġcharacters": 6789,
      "Listen": 6790,
      "ĠuntagHumanoid": 6791,
      "userdata": 6792,
      "Scores": 6793,
      "Limiter": 6794,
      "ĠcommandName": 6795,
      "Radio": 6796,
      "Perc": 6797,
      "idelity": 6798,
      "589": 6799,
      "Segway": 6800,
      "Ġbuttons": 6801,
      "ĠAllYour": 6802,
      "acing": 6803,
      "CONT": 6804,
      "Ġeffects": 6805,
      "CoreGuiType": 6806,
      "Ġtempor": 6807,
      "Ġdragging": 6808,
      "Ġrejected": 6809,
      "emoteNames": 6810,
      "KEY": 6811,
      "Visual": 6812,
      "AssetType": 6813,
      "ĠscrollFrame": 6814,
      "bitalCamera": 6815,
      "indicator": 6816,
      "805950999": 6817,
      "ĠAllYourBlox": 6818,
      "797": 6819,
      "?%": 6820,
      "AY": 6821,
      "GIN": 6822,
      "Low": 6823,
      "SON": 6824,
      "bring": 6825,
      "cated": 6826,
      "rso": 6827,
      "vCharacter": 6828,
      "width": 6829,
      "Ñĭ": 6830,
      "ĠcDZone": 6831,
      "ĠaRef": 6832,
      "ĠTc": 6833,
      "Ġ{...": 6834,
      "UserCFrame": 6835,
      "ĠBar": 6836,
      "IsDead": 6837,
      "MouseDelta": 6838,
      "ivable": 6839,
      "ĉĉĉĊĉ": 6840,
      "147": 6841,
      "currently": 6842,
      "Unknown": 6843,
      "psi": 6844,
      "lectance": 6845,
      "ailability": 6846,
      "Ġchecks": 6847,
      "Ġ100000": 6848,
      "Ġstud": 6849,
      "Caster": 6850,
      "MinLength": 6851,
      "Reflectance": 6852,
      "filePrefix": 6853,
      "Horizontal": 6854,
      "Perms": 6855,
      "PitchMax": 6856,
      "PitchMin": 6857,
      "ĠoffsetValueObj": 6858,
      "TireWear": 6859,
      "ĠchatBubbleMain": 6860,
      "SegmentOrigin": 6861,
      "Created": 6862,
      "fully": 6863,
      "ĠtqPlot": 6864,
      "ĠAnimations": 6865,
      "ĠCalled": 6866,
      "feedbackMain": 6867,
      "TriggerValue": 6868,
      "ĠRotation": 6869,
      "camRecoilMod": 6870,
      "gunRecoilMod": 6871,
      "ĠcInputB": 6872,
      "Ġconnected": 6873,
      "LAYER": 6874,
      "BarrelAtt": 6875,
      "WhizSound": 6876,
      "ĠTopbarPlus": 6877,
      "ĠHorsepower": 6878,
      "MouseDeltaSensitivity": 6879,
      "TireWearOn": 6880,
      "813": 6881,
      "BT": 6882,
      "DB": 6883,
      "DU": 6884,
      "Feature": 6885,
      "Lerp": 6886,
      "Polyfill": 6887,
      "XME": 6888,
      "den": 6889,
      "font": 6890,
      "suggestion": 6891,
      "uble": 6892,
      "Ġ(\"": 6893,
      "ĠĊĉĊ": 6894,
      "ĠEnabled": 6895,
      "Ġelseif": 6896,
      "cell": 6897,
      "Ġfully": 6898,
      "Ġpdata": 6899,
      "Ġwrit": 6900,
      "Ġ13": 6901,
      "Ġowner": 6902,
      "ounter": 6903,
      "Decode": 6904,
      "Gets": 6905,
      "expect": 6906,
      "forwardValue": 6907,
      "ush": 6908,
      "Velo": 6909,
      "ĠMiddle": 6910,
      "Clamp": 6911,
      "Tracer": 6912,
      "176": 6913,
      "10000": 6914,
      "scr": 6915,
      "129": 6916,
      "Runtime": 6917,
      "8885": 6918,
      "Proxy": 6919,
      "Progress": 6920,
      "ListHead": 6921,
      "BodyGyro": 6922,
      "Ġnever": 6923,
      "230": 6924,
      "23224": 6925,
      "LocalScript": 6926,
      "Ġcheckw": 6927,
      "LEFT": 6928,
      "Ġcalling": 6929,
      "umentation": 6930,
      "Ġusers": 6931,
      "NumberRange": 6932,
      "ĠswordUp": 6933,
      "ĠswordOut": 6934,
      "NoEnv": 6935,
      "CrossServer": 6936,
      "handlerListHead": 6937,
      "HTTP": 6938,
      "ĠBulletHole": 6939,
      "Replica": 6940,
      "Ġrecommended": 6941,
      "SIDES": 6942,
      "Ġsimply": 6943,
      "98023224": 6944,
      "ĠBackgroundTransparency": 6945,
      "DescendantAddedConns": 6946,
      "DescendantRemovingConns": 6947,
      "ARIABLES": 6948,
      "996194661": 6949,
      "THRESHOLD": 6950,
      "950": 6951,
      "Api": 6952,
      "Cursor": 6953,
      "Dn": 6954,
      "Home": 6955,
      "Print": 6956,
      "iates": 6957,
      "spect": 6958,
      "vr": 6959,
      "wDRatio": 6960,
      "Ñĩ": 6961,
      "aturation": 6962,
      "ĊĉĠĠĠĠĠĠĠ": 6963,
      "untagHumanoid": 6964,
      "isJumping": 6965,
      "rim": 6966,
      "Ġperson": 6967,
      "Ġsnap": 6968,
      "Ġbuild": 6969,
      "ĠTw": 6970,
      "ĠTOLD": 6971,
      "Ġrevent": 6972,
      "Ġreplace": 6973,
      "007": 6974,
      "Def": 6975,
      "Seek": 6976,
      "Ġdebug": 6977,
      "ĠDrag": 6978,
      "verage": 6979,
      "TextButton": 6980,
      "LeftShift": 6981,
      "LeftHand": 6982,
      "Splash": 6983,
      "AtPriority": 6984,
      "playerFromCharacter": 6985,
      "Tools": 6986,
      "ĠVargs": 6987,
      "ĠDeps": 6988,
      "BackPlayerlist": 6989,
      "amplit": 6990,
      "Starter": 6991,
      "StartLoop": 6992,
      "AnimationPriority": 6993,
      "ĠGun": 6994,
      "283": 6995,
      "BodyPosition": 6996,
      "ERE": 6997,
      "354": 6998,
      "777": 6999,
      "loaded": 7000,
      "packages": 7001,
      "LastUpdate": 7002,
      "ARN": 7003,
      "menuContainer": 7004,
      "Ġresults": 7005,
      "ÐµÐ½Ð¸": 7006,
      "ControlsOpen": 7007,
      "ĠcenterPosition": 7008,
      "Ġoptional": 7009,
      "Extra": 7010,
      "ĠBESIDES": 7011,
      "lacklist": 7012,
      "TopbarEnabled": 7013,
      "Creators": 7014,
      "BreakJoints": 7015,
      "ĠMultiplier": 7016,
      "bringBackPlayerlist": 7017,
      "DULE": 7018,
      "Acc": 7019,
      "Blast": 7020,
      "Clip": 7021,
      "Electric": 7022,
      "FIG": 7023,
      "Fidelity": 7024,
      "Qual": 7025,
      "Sort": 7026,
      "az": 7027,
      "kick": 7028,
      "non": 7029,
      "npchumanoid": 7030,
      "rl": 7031,
      "rs": 7032,
      "}`": 7033,
      "enum": 7034,
      "level": 7035,
      "stat": 7036,
      "ities": 7037,
      "dev": 7038,
      "Cheer": 7039,
      "chivable": 7040,
      "------------------": 7041,
      "ĠCosmeticBulletObject": 7042,
      "ĠSo": 7043,
      "SizeY": 7044,
      "ĠBy": 7045,
      "ĠRead": 7046,
      "Ġrbx": 7047,
      "Ġmost": 7048,
      "168": 7049,
      "Ġupstream": 7050,
      "Und": 7051,
      "block": 7052,
      "BaseCharacterController": 7053,
      "Amt": 7054,
      "2557": 7055,
      "ccept": 7056,
      "Radial": 7057,
      "pectRatio": 7058,
      "RateLimits": 7059,
      "\\\\\\\\": 7060,
      "smArrowSize": 7061,
      "ĠDefaults": 7062,
      "Cycle": 7063,
      "Ġassert": 7064,
      "(`{": 7065,
      "ĠViewport": 7066,
      "64278": 7067,
      "925416589": 7068,
      "concat": 7069,
      "ĠSegmentVelocity": 7070,
      "Occupant": 7071,
      "360": 7072,
      "Date": 7073,
      "FindFirst": 7074,
      "LL": 7075,
      "PO": 7076,
      "TT": 7077,
      "cTq": 7078,
      "Ġhttp": 7079,
      "Ġvehicle": 7080,
      "annel": 7081,
      "Ġthrot": 7082,
      "Ġfailed": 7083,
      "Ġsit": 7084,
      "Ġslice": 7085,
      "ĠClick": 7086,
      "Ġindicator": 7087,
      "omb": 7088,
      "ĠSw": 7089,
      "ĠSword": 7090,
      "ĠSymbol": 7091,
      "Ġrev": 7092,
      "Ġob": 7093,
      "ĠRMinFriction": 7094,
      "ĠRWearSpeed": 7095,
      "ĠRTargetFriction": 7096,
      "ĠRFrictionWeight": 7097,
      "ĠAv": 7098,
      "uple": 7099,
      "HumanoidRigType": 7100,
      "thumbnail": 7101,
      "--[[*": 7102,
      "Ġ250": 7103,
      "ĠFElasticity": 7104,
      "ĠFMinFriction": 7105,
      "ĠFWearSpeed": 7106,
      "ĠFTargetFriction": 7107,
      "ĠFFrictionWeight": 7108,
      "waitForChild": 7109,
      "2500": 7110,
      "ĠMethods": 7111,
      "MaxComp": 7112,
      "lastUpdate": 7113,
      "Ġexper": 7114,
      "currentPoints": 7115,
      "Ġ`{": 7116,
      "RemoteFunction": 7117,
      "UnWrap": 7118,
      "Ġless": 7119,
      "ShiftTime": 7120,
      "Clicked": 7121,
      "stickImage": 7122,
      "453": 7123,
      "iconSize": 7124,
      "ĠrunService": 7125,
      "Collect": 7126,
      "Ġprojectile": 7127,
      "ogen": 7128,
      "3420": 7129,
      "0868": 7130,
      "ĠWheelLockRatio": 7131,
      "ĠWheelspinRatio": 7132,
      "9798": 7133,
      "ĠAlpha": 7134,
      "menuOpen": 7135,
      "Ġerrors": 7136,
      "guise": 7137,
      "checkert": 7138,
      "ĠmyHuman": 7139,
      "URN": 7140,
      "leftValue": 7141,
      "ProfileService": 7142,
      "Ġpromises": 7143,
      "ĠRElasticity": 7144,
      "ĠRElastWeight": 7145,
      "ReadOnly": 7146,
      "Blocker": 7147,
      "TRAN": 7148,
      "Dragging": 7149,
      "ContentSize": 7150,
      "boundMiddleware": 7151,
      "Ġfires": 7152,
      "ĠTCSOffRatio": 7153,
      "Ġavoid": 7154,
      "Ġentire": 7155,
      "ĠRLgcyElasticity": 7156,
      "ĠRLgcyElWeight": 7157,
      "ĠRLgcyFrWeight": 7158,
      "ĠFLgcyElasticity": 7159,
      "ĠFLgcyElWeight": 7160,
      "ĠFLgcyFrWeight": 7161,
      "939692557": 7162,
      "previous": 7163,
      "ĠFElastWeight": 7164,
      "ĠRegenSpeed": 7165,
      "ĠOffset": 7166,
      "MAX": 7167,
      "BottomSurface": 7168,
      "ailureWaypoint": 7169,
      "reference": 7170,
      "Ġetc": 7171,
      "BRAKE": 7172,
      "Ġtemporary": 7173,
      "(#": 7174,
      "118": 7175,
      "Digit": 7176,
      "Fail": 7177,
      "FLgcy": 7178,
      "now": 7179,
      "timer": 7180,
      "trove": 7181,
      "Ġ```": 7182,
      "sth": 7183,
      "Chamber": 7184,
      "InAnd": 7185,
      "newValue": 7186,
      "atever": 7187,
      "Ġbig": 7188,
      "Ġaway": 7189,
      "ĠTimer": 7190,
      "ĠSurface": 7191,
      "ĠSnap": 7192,
      "Ġgive": 7193,
      "Ġchosen": 7194,
      "cycle": 7195,
      "UpVector": 7196,
      "ĠDist": 7197,
      "IsJumping": 7198,
      "IsValid": 7199,
      "ModuleScripts": 7200,
      "ipod": 7201,
      "rotate": 7202,
      "foot": 7203,
      "Ġlines": 7204,
      "Connected": 7205,
      "Travel": 7206,
      "ScriptCache": 7207,
      "scroll": 7208,
      "Outlines": 7209,
      "---[[": 7210,
      "0001": 7211,
      "7094": 7212,
      "Modify": 7213,
      "Ġclients": 7214,
      "moving": 7215,
      "771": 7216,
      "ĠSpawn": 7217,
      "Ġkind": 7218,
      "HorFactor": 7219,
      "Ġpermission": 7220,
      "3868": 7221,
      "Ġrocket": 7222,
      "ĠÐ¸": 7223,
      "Ġimmedi": 7224,
      "DisplayManager": 7225,
      "FocusGained": 7226,
      "ĠProjectile": 7227,
      "Ġinclude": 7228,
      "Standing": 7229,
      "-----------------------------------------------------------------------------------------------": 7230,
      "92201": 7231,
      "AvatarEditor": 7232,
      "ĠrelativePosition": 7233,
      "LoopedSounds": 7234,
      "ÐµÐ¼": 7235,
      "CollisionGroupId": 7236,
      "ĠNovena": 7237,
      "generated": 7238,
      "Ġvariable": 7239,
      "Web": 7240,
      "ammed": 7241,
      "inningTeam": 7242,
      "ImageRectOffset": 7243,
      "07592201": 7244,
      "--//////////////////////////////": 7245,
      "currentlyPlayingEmote": 7246,
      "FindFirstAncestor": 7247,
      "InAndOut": 7248,
      "955": 7249,
      "FastCast": 7250,
      "Hum": 7251,
      "IM": 7252,
      "Plugin": 7253,
      "Squad": 7254,
      "Us": 7255,
      "cachedParts": 7256,
      "ee": 7257,
      "iComp": 7258,
      "lation": 7259,
      "ous": 7260,
      "zier": 7261,
      "Ð²": 7262,
      "Ġrig": 7263,
      "reason": 7264,
      "------------": 7265,
      "ily": 7266,
      "Ġcer": 7267,
      "()`": 7268,
      "Ġ14": 7269,
      "Ġduration": 7270,
      "Encrypt": 7271,
      "ĠTip": 7272,
      "Ġhroot": 7273,
      "Ġchain": 7274,
      "ĠBl": 7275,
      "ĠBind": 7276,
      "ĠiComp": 7277,
      "shell": 7278,
      "ĠMotor": 7279,
      "SetData": 7280,
      "raycastParams": 7281,
      "ImageButton": 7282,
      "164": 7283,
      "165": 7284,
      "ĠDebris": 7285,
      "126": 7286,
      "246": 7287,
      "Ġnear": 7288,
      "Targeting": 7289,
      "anks": 7290,
      "pie": 7291,
      "ETH": 7292,
      "dropdownContainer": 7293,
      "Ġcreates": 7294,
      "currentAnimInstance": 7295,
      "ĠNOTE": 7296,
      "AxisAngle": 7297,
      "uffer": 7298,
      "spirated": 7299,
      "Ġentry": 7300,
      "Ġrequested": 7301,
      "ĠTeamManager": 7302,
      "MOVE": 7303,
      "ĠBloodWound": 7304,
      "ĠFIXME": 7305,
      "(.*)\")": 7306,
      "Ġquickly": 7307,
      "chargers": 7308,
      "ĠSnapTracking": 7309,
      "120": 7310,
      "214": 7311,
      "BV": 7312,
      "Grav": 7313,
      "Total": 7314,
      "bp": 7315,
      "gers": 7316,
      "td": 7317,
      "Ġable": 7318,
      "Ĥ¬": 7319,
      "ename": 7320,
      "steps": 7321,
      "Ġface": 7322,
      "Ġpitch": 7323,
      "Ġsu": 7324,
      "Ġsounds": 7325,
      "Ġsymbol": 7326,
      "newCamera": 7327,
      "Ġbox": 7328,
      "Ġbubble": 7329,
      "Ġaffect": 7330,
      "ĊĊĠĠĠĠĠĠĠĠĠĠĠ": 7331,
      "aded": 7332,
      "Ġrejection": 7333,
      "iron": 7334,
      "Ġhelp": 7335,
      "indList": 7336,
      "Ġdescendant": 7337,
      "Ġdestination": 7338,
      "Thumbnail": 7339,
      "uise": 7340,
      "ĠWill": 7341,
      "ĠHandler": 7342,
      "ĠFinal": 7343,
      "ĠBlowupTemp": 7344,
      "ĠonState": 7345,
      "15685": 7346,
      "riggers": 7347,
      "PointObject": 7348,
      "ivot": 7349,
      "ĠVitimaHuman": 7350,
      "ĉĉĉĠ": 7351,
      "50647": 7352,
      "RLgcy": 7353,
      "LoadScene": 7354,
      "ĠGauge": 7355,
      "1336": 7356,
      "243": 7357,
      "Ġ45": 7358,
      "291336": 7359,
      "35447": 7360,
      "9350647": 7361,
      "Ambient": 7362,
      "443868": 7363,
      "maining": 7364,
      "985": 7365,
      "227094": 7366,
      "Ġpresent": 7367,
      "ĠHandles": 7368,
      "Ġ8000": 7369,
      "ScreenOrientation": 7370,
      "ĠEnables": 7371,
      "Defaults": 7372,
      "Ġtwist": 7373,
      "ĠGameSettings": 7374,
      "3115685": 7375,
      "RightLegPointZero": 7376,
      "Waypoints": 7377,
      "LeftLegPointZero": 7378,
      "RightArmPointZero": 7379,
      "boundKeysObj": 7380,
      "LeftArmPointZero": 7381,
      "Ġtests": 7382,
      "Ġjoints": 7383,
      "signals": 7384,
      "LowerTorsoPointZero": 7385,
      "ĠOrbitalCamera": 7386,
      "110443868": 7387,
      "Ġstored": 7388,
      "ELS": 7389,
      "766044378": 7390,
      "32345": 7391,
      "Ġutf": 7392,
      "223684": 7393,
      "336832345": 7394,
      "Ġimplementation": 7395,
      "20718": 7396,
      "MatIcons": 7397,
      "riendly": 7398,
      "ĠSlashSound": 7399,
      "888520718": 7400,
      "950223684": 7401,
      "FindFirstAncestorOfClass": 7402,
      "291336805": 7403,
      "354476899": 7404,
      "935064793": 7405,
      "22709467": 7406,
      "311568588": 7407,
      "'ll": 7408,
      "Acceleration": 7409,
      "Final": 7410,
      "Mid": 7411,
      "NH": 7412,
      "PL": 7413,
      "XAlignment": 7414,
      "filter": 7415,
      "flags": 7416,
      "lare": 7417,
      "nn": 7418,
      "screen": 7419,
      "vg": 7420,
      "xternal": 7421,
      "Ġ(),": 7422,
      "Ġtire": 7423,
      "edJanitor": 7424,
      "road": 7425,
      "Ġslow": 7426,
      "Ġwere": 7427,
      "Ġreally": 7428,
      "Ġhat": 7429,
      "ToSubject": 7430,
      "ĠisLocalPlayer": 7431,
      "))*_": 7432,
      "range": 7433,
      "AnimObj": 7434,
      "ĠWindow": 7435,
      "ĠFix": 7436,
      "ĠFOR": 7437,
      "IsPlaying": 7438,
      "OnInputEnded": 7439,
      "TextBounds": 7440,
      "Ġwhatever": 7441,
      "ĠUsed": 7442,
      "Traction": 7443,
      "149": 7444,
      "AnimationWeight": 7445,
      "137": 7446,
      "Listeners": 7447,
      "Precalculated": 7448,
      "IdleAnim": 7449,
      "','": 7450,
      "DescendantsInstances": 7451,
      "FilterDescendantsInstances": 7452,
      "StickImage": 7453,
      "Kickback": 7454,
      "ĠVRService": 7455,
      "ĠLocalize": 7456,
      "ĠServerMiddleware": 7457,
      "Ġturbocharger": 7458,
      "ViewportPoint": 7459,
      "Ġmodify": 7460,
      "Entry": 7461,
      "isfrozen": 7462,
      "Compute": 7463,
      "Ġlogic": 7464,
      "------------------------------------------------------------": 7465,
      "ĠPlayOn": 7466,
      "flagObject": 7467,
      "Cruise": 7468,
      "984807789": 7469,
      "ĠthumbstickSize": 7470,
      "ffici": 7471,
      "HelpButton": 7472,
      "Ġcertain": 7473,
      ",...)": 7474,
      "290": 7475,
      "560": 7476,
      "AF": 7477,
      "Cub": 7478,
      "DCT": 7479,
      "LFW": 7480,
      "Pur": 7481,
      "PBForce": 7482,
      "mult": 7483,
      "ners": 7484,
      "oard": 7485,
      "Ġq": 7486,
      "Ġcooldown": 7487,
      "()*": 7488,
      "()-": 7489,
      "olds": 7490,
      "Ġsight": 7491,
      "Rescript": 7492,
      "Ang": 7493,
      "heat": 7494,
      "ĠRIGHT": 7495,
      "urrency": 7496,
      "ĠFR": 7497,
      "tonumber": 7498,
      "151": 7499,
      "ĠReload": 7500,
      "TableKey": 7501,
      "RightLowerArm": 7502,
      "Ġlatest": 7503,
      "LeftFoot": 7504,
      "LeftUpperLeg": 7505,
      "Ġreturning": 7506,
      "Ġrp": 7507,
      "FireModes": 7508,
      "FireAll": 7509,
      "2098": 7510,
      "lastCamera": 7511,
      "888": 7512,
      "aged": 7513,
      "240": 7514,
      "ording": 7515,
      "ĠcurrentSize": 7516,
      "ForceField": 7517,
      "Pressed": 7518,
      "Ġservices": 7519,
      "CurrentTargetHumanoid": 7520,
      "ShiftDn": 7521,
      "ĠLogs": 7522,
      "Ġprocess": 7523,
      "Ġprocessed": 7524,
      "LgcyPBForce": 7525,
      "Notes": 7526,
      "aderboard": 7527,
      "Ġzero": 7528,
      "TopSurface": 7529,
      "ĠButtons": 7530,
      "ÑģÑĤ": 7531,
      "522098": 7532,
      "3934": 7533,
      "Ġ25000": 7534,
      "continue": 7535,
      "378522098": 7536,
      "6427875": 7537,
      "ExhaustPart": 7538,
      "explo": 7539,
      "ĠONLY": 7540,
      "0180283934": 7541,
      "Operation": 7542,
      "Ġindicates": 7543,
      "encies": 7544,
      "FLgcyBForce": 7545,
      "ironment": 7546,
      "RLgcyBForce": 7547,
      "Rescripted": 7548,
      "CO": 7549,
      "Grid": 7550,
      "TY": 7551,
      "Trip": 7552,
      "WRot": 7553,
      "YRot": 7554,
      "cat": 7555,
      "gage": 7556,
      "pattern": 7557,
      "title": 7558,
      "will": 7559,
      "ature": 7560,
      "Ġthing": 7561,
      "eded": 7562,
      "elt": 7563,
      "Ġsign": 7564,
      "ves": 7565,
      "Engage": 7566,
      "Ġbin": 7567,
      "ĠSER": 7568,
      "Ġreleased": 7569,
      "iring": 7570,
      "Ġdepth": 7571,
      "ThumbpadFrame": 7572,
      "keyCode": 7573,
      "Ġiter": 7574,
      "SpeedDampeningObject": 7575,
      "ĠplayerGui": 7576,
      "RightUpperLeg": 7577,
      "RightUpperArm": 7578,
      "anto": 7579,
      "ĠNone": 7580,
      "pare": 7581,
      "ĠVersion": 7582,
      "TouchMove": 7583,
      "ĠConstants": 7584,
      "304": 7585,
      "676": 7586,
      "former": 7587,
      "Private": 7588,
      "Ġhitbox": 7589,
      "ĠHumanoidHipHeight": 7590,
      "DistanceChangeConn": 7591,
      "ENTS": 7592,
      "ĠTrail": 7593,
      "Ġimport": 7594,
      "5835": 7595,
      "Shotgun": 7596,
      "RollOff": 7597,
      "NormalId": 7598,
      "Interaction": 7599,
      "ĠStarterGui": 7600,
      "ocket": 7601,
      "ĠPartCFrame": 7602,
      "ĠAnimationSpeedDampeningObject": 7603,
      "totalPSI": 7604,
      "FanCool": 7605,
      "Ġavailable": 7606,
      "ĠCopyright": 7607,
      "Halogen": 7608,
      "Ġinstantiated": 7609,
      "ĠcInputT": 7610,
      "Ġdisconnected": 7611,
      "ĉĉĉĉĉĉĉĉĉĉĉĉĉĉĉĉĉĉĉĉĉĉĉĉĉĉĉĉĉĉĉĉĉĉĉĉĉĉĉĉĉĉĉĉĉĉĉĉĉĉĉĉĉĉĉĉĉĉĉĉĉĉĉĉĉĉĉĉĉĉĉĉĉĉĉĉĉĉĉĉĉĉĉĉĉĉĉĉĉĉĉĉĉĉĉĉĉĉĉĉĉĉĉĉĉĉĉĉĉĉĉĉĉĉĉĉĉĉĉĉĉĉĉĉĉĉĉĉĉĉĉĉĉĉĉĉĉĉĉĉĉĉĉĉĉĉĉĉĉĉĉĉĉĉĉĉĉĉĉĉĉĉĉĉĉĉĉĉĉĉĉĉĉĉĉĉĉĉĉĉĉĉĉĉĉĉĉĉĉĉĉĉĉĉĉĉĉĉĉĉĉĉĉĉĉĉĉĉĉĉĉĉĉĉĉĉĉĉĉĉĉĉĉĉĉĉĉĉĉĉĉĉĉĉĉĉĉĉĉĉĉĉĉĉĉĉĉĉĉĉĉĉĉĉĉĉĉĉĉĉĉĉĉĉĉĉĉĉĉĉĉĉĉĉĉĉĉĉĉĉĉĉĉĉĉĉĉĉĉĉĉĉĉĉĉĉĉĉĉĉĉĉĉĉĉĉĉĉĉĉĉĉĉĉĉĉĉĉĉĉĉĉĉĉĉĉĉĉĉĉĉĉĉĉĉĉĉĉĉĉĉĉĉĉĉĉĉĉĉĉĉĉĉĉĉĉĉĉĉĉĉĉĉĉĉĉĉĉĉĉĉĉĉĉĉĉĉĉĉĉĉĉĉĉĉĉĉĉĉĉĉĉĉĉĉĉĉĉĉĉĉĉĉĉĉĉĉĉĉĉĉĉĉĉĉĉĉĉĉĉĉĉĉĉĉĉĉĉĉĉĉĉĉĉĉĉĉĉĉĉĉĉĉĉĉĉĉĉĉĉĉĉĉĉĉĉĉĉĉĉĉĉĉĉĉĉĉĉĉĉĉĉĉĉĉĉĉĉĉĉĉĉĉĉĉĉĉĉĉĉĉĉĉĉĉĉĉĉĉĉĉĉĉĉĉĉĉĉĉĉĉĉ": 7612,
      "Observe": 7613,
      "ĠFFlagUser": 7614,
      "SnappingPoints": 7615,
      "Ġimmediately": 7616,
      "roadcast": 7617,
      "!\"": 7618,
      "*-": 7619,
      "363": 7620,
      "630": 7621,
      "Blower": 7622,
      "Blue": 7623,
      "FGC": 7624,
      "HttpService": 7625,
      "Mul": 7626,
      "Method": 7627,
      "OS": 7628,
      "Pending": 7629,
      "RFW": 7630,
      "Suspension": 7631,
      "Socket": 7632,
      "VAL": 7633,
      "Wra": 7634,
      "Wall": 7635,
      "Zombie": 7636,
      "hen": 7637,
      "pdata": 7638,
      "sClimbing": 7639,
      "test": 7640,
      "ĊĉĉĊĉĉ": 7641,
      "Ġturned": 7642,
      "init": 7643,
      "-------------": 7644,
      "ilar": 7645,
      "urst": 7646,
      "chr": 7647,
      "chron": 7648,
      "ĠCre": 7649,
      "ĠCRot": 7650,
      "idden": 7651,
      "ĠSE": 7652,
      "Ġ{})": 7653,
      "heartbeat": 7654,
      "ĠRS": 7655,
      "Ġisn": 7656,
      "ĠAxes": 7657,
      "ĠWaist": 7658,
      "ĠIT": 7659,
      "ĠIdle": 7660,
      "Ident": 7661,
      "991": 7662,
      "ĠplayerData": 7663,
      "MouseLeave": 7664,
      "tempt": 7665,
      "Ġequi": 7666,
      "LeftUpperArm": 7667,
      "LeftLowerArm": 7668,
      "LeftLowerLeg": 7669,
      "LeftElbow": 7670,
      "LightEvent": 7671,
      "ĉĉĉĊĉĉĉĉ": 7672,
      "138": 7673,
      "playAnimation": 7674,
      "eakMap": 7675,
      "191": 7676,
      "JumpAction": 7677,
      "ĠShake": 7678,
      "Ġ7000": 7679,
      "---------------------": 7680,
      "Before": 7681,
      "Ġtopbar": 7682,
      "ĠUnsheathSound": 7683,
      "ĠCheckMatch": 7684,
      "ĠRunAfterPlugins": 7685,
      "ĠLean": 7686,
      "Override": 7687,
      "FormFactor": 7688,
      "HUM": 7689,
      "events": 7690,
      "NavigationEnabled": 7691,
      "ViewportSize": 7692,
      "ĠnewCameraCFrame": 7693,
      "MouseIconEnabled": 7694,
      "ĠOtherwise": 7695,
      "WEEN": 7696,
      "porter": 7697,
      "KeepAlive": 7698,
      "jectory": 7699,
      "amplitude": 7700,
      "ARNING": 7701,
      "Usage": 7702,
      "((_": 7703,
      ")][": 7704,
      "219": 7705,
      "ACT": 7706,
      "AST": 7707,
      "Edit": 7708,
      "Found": 7709,
      "Gate": 7710,
      "Jammed": 7711,
      "LRW": 7712,
      "PR": 7713,
      "Sim": 7714,
      "Used": 7715,
      "af": 7716,
      "promise": 7717,
      "son": 7718,
      "scel": 7719,
      "ty": 7720,
      "ĊĠĠĠĠĠ": 7721,
      "Ġu": 7722,
      "Ġabs": 7723,
      "ĠStoredAmmo": 7724,
      "sec": 7725,
      "react": 7726,
      "riever": 7727,
      "ĉĉĉĉĊĉ": 7728,
      "Inst": 7729,
      "ĠCF": 7730,
      "Reason": 7731,
      "Ġblue": 7732,
      "Framework": 7733,
      "ĠSave": 7734,
      "Answer": 7735,
      "Ġreverse": 7736,
      "Ġhover": 7737,
      "Ġorg": 7738,
      "GetHumanoid": 7739,
      "GetCFrame": 7740,
      "ĠRate": 7741,
      "aster": 7742,
      "Lost": 7743,
      "AnimData": 7744,
      "ductor": 7745,
      "icc": 7746,
      "Ġdeveloper": 7747,
      "ĠFound": 7748,
      "ĠFailed": 7749,
      "SteerT": 7750,
      "Ġyet": 7751,
      "RightInd": 7752,
      "RightElbow": 7753,
      "RightKnee": 7754,
      "Ġconstruct": 7755,
      "LeftInd": 7756,
      "LeftKnee": 7757,
      "Spoil": 7758,
      "106": 7759,
      "BrakeP": 7760,
      "ĠDealWithInput": 7761,
      "StartPosition": 7762,
      "Ġbyte": 7763,
      "AutoFlip": 7764,
      "ava": 7765,
      "psName": 7766,
      "REMOT": 7767,
      "ĠLoop": 7768,
      "humanoidRootPart": 7769,
      "ocs": 7770,
      "caution": 7771,
      "LaserPointer": 7772,
      "ĠparentFrame": 7773,
      "ĠArms": 7774,
      "waypoints": 7775,
      "ĠuserId": 7776,
      "Ġloadstring": 7777,
      "ĠÐ¾": 7778,
      "Ġresulting": 7779,
      "ĠhandleAction": 7780,
      "ĠEnable": 7781,
      "RRW": 7782,
      "ĠorigRoll": 7783,
      "asteGate": 7784,
      "ĠLeitnick": 7785,
      "Ġ15000": 7786,
      "!!!!": 7787,
      "myRoot": 7788,
      "ĉĉĉĉĉĉĉĉĉĉĉĉĉĉĉĉĉĉĉĉĉĉĉĉĉĉĉĉĉĉĉĉĉĉĉĉĉĉĉĉĉĉĉĉĉĉĉĉĉĉĉĉĉĉĉĉĉĉĉĉĉĉĉĉĉĉĉĉĉĉĉĉĉĉĉĉĉĉĉĉĉĉĉĉĉĉĉĉĉĉĉĉĉĉĉĉĉĉĉĉĉĉĉĉĉĉĉĉĉĉĉĉĉĉĉĉĉĉĉĉĉĉĉĉĉĉĉĉĉĉĉĠ": 7789,
      "Ġlimbcolliderweld": 7790,
      "LeftLeanM": 7791,
      "ĠCalcul": 7792,
      "RightLeanD": 7793,
      "RightLeanM": 7794,
      "LayoutOrder": 7795,
      "Ġ((((_": 7796,
      "precated": 7797,
      "noticeFrame": 7798,
      "VIP": 7799,
      "ĠFaces": 7800,
      "Ġ(...:": 7801,
      "Required": 7802,
      "ĠWalkMul": 7803,
      "ĠStephen": 7804,
      "ListenTo": 7805,
      "FireAllClients": 7806,
      "Spoiler": 7807,
      "asteGatePressure": 7808,
      "218": 7809,
      "='": 7810,
      "Appear": 7811,
      "Blow": 7812,
      "Cost": 7813,
      "ECT": 7814,
      "Money": 7815,
      "Plane": 7816,
      "Popups": 7817,
      "Sand": 7818,
      "Vi": 7819,
      "YST": 7820,
      "[^": 7821,
      "fb": 7822,
      "fr": 7823,
      "late": 7824,
      "mon": 7825,
      "page": 7826,
      "sb": 7827,
      "ĉĉĊĉĉĊĉ": 7828,
      "ifies": 7829,
      "Ġmess": 7830,
      "Ġmarine": 7831,
      "ĠClean": 7832,
      "Ġaspirated": 7833,
      "ircle": 7834,
      "Ġvoid": 7835,
      "Ġhats": 7836,
      "Ġhello": 7837,
      "izer": 7838,
      "Ġ---": 7839,
      "updated": 7840,
      "Ġdeep": 7841,
      "--[[[": 7842,
      "158": 7843,
      "ship": 7844,
      "RightLowerLeg": 7845,
      "Ġeven": 7846,
      "ĠnewPos": 7847,
      "101": 7848,
      "ĠCheer": 7849,
      "ĠVARIABLES": 7850,
      "Ġstrings": 7851,
      "127": 7852,
      "rightValue": 7853,
      "ĠPlayerScripts": 7854,
      "195": 7855,
      "animation": 7856,
      "getmetatable": 7857,
      "Ġparam": 7858,
      "ĠEND": 7859,
      "ATA": 7860,
      "340": 7861,
      "ĠWheelie": 7862,
      "Ġprefer": 7863,
      "Ġcalcul": 7864,
      "captionLabel": 7865,
      "Ġoverw": 7866,
      "ADONIS": 7867,
      "hpScaling": 7868,
      "Ġtouching": 7869,
      "ĠDefaultNames": 7870,
      "itemGui": 7871,
      "commands": 7872,
      "startup": 7873,
      "Threads": 7874,
      "Interface": 7875,
      "Avxnturador": 7876,
      "ĠBELOW": 7877,
      "Ġdirectory": 7878,
      "RunAfterLoaded": 7879,
      "HighFidelity": 7880,
      "Ġaccording": 7881,
      "ĠTracked": 7882,
      "Ġ]----------------------------------------": 7883,
      "Ġtowards": 7884,
      "closest": 7885,
      "lastSubjectPosition": 7886,
      "Ġparticles": 7887,
      "LUGIN": 7888,
      "README": 7889,
      "Relative": 7890,
      "RecomputePath": 7891,
      "Shadow": 7892,
      "Collector": 7893,
      "ĉĉĉĉĉĉĉĉĉĉĉĉĉĉĉĉĉĉĉĉĉĉĉĉĉĉĉĉĉĉĉĉĉĉĉĉĉĉĉĉĉĉĉĉĉĉĉĉĉĉĉĉĉĉĉĉĉĉĉĉĉĉĉĉĉĉĉĉĉĉĉĉĉĉĉĉĉĉĉĉĉĉĉĉĉĉĉĉĉĉĉĉĉĉĉĉĉĉĉĉĉĉĉĉĉĉĉĉĉĉĉĉĉĉĉĉĉĉĉĉĉĉĉĉĉĉĉĉĉĉĉĠĉĉĉĉĉĉĉĉĉĉĉĉĉĉĉĉĉĉĉĉĉĉĉĉĉĉĉĉĉĉĉĉĉĉĉĉĉĉĉĉĉĉĉĉĉĉĉĉĉĉĉĉĉĉĉĉĉĉĉĉĉĉĉĉĉĉĉĉĉĉĉĉĉĉĉĉĉĉĉĉĉĉĉĉĉĉĉĉĉĉĉĉĉĉĉĉĉĉĉĉĉĉĉĉĉĉĉĉĉĉĉĉĉĉĉĉĉĉĉĉĉĉĉĉĉĉĉĉĉĉĉĠ": 7894,
      "YSTEM": 7895,
      ")]]": 7896,
      "115": 7897,
      "FOR": 7898,
      "JSON": 7899,
      "Tone": 7900,
      "catch": 7901,
      "element": 7902,
      "mark": 7903,
      "punch": 7904,
      "yield": 7905,
      "Ġteleport": 7906,
      "atan": 7907,
      "rec": 7908,
      "amount": 7909,
      "ception": 7910,
      "ederal": 7911,
      "Ġflash": 7912,
      "Ġclo": 7913,
      "Ġsupp": 7914,
      "imed": 7915,
      "newproxy": 7916,
      "Ġmesh": 7917,
      "Ġvia": 7918,
      "Ġhot": 7919,
      "serial": 7920,
      "Ġgh": 7921,
      "PlayerActions": 7922,
      "ToObjectSpace": 7923,
      "Ġdec": 7924,
      "ĠFan": 7925,
      "ista": 7926,
      "istic": 7927,
      "ĠDock": 7928,
      "\"],": 7929,
      "Ġwho": 7930,
      "ĠRes": 7931,
      "Ġequipped": 7932,
      "Ġ320": 7933,
      "ToolChild": 7934,
      "Images": 7935,
      "Ġ[,": 7936,
      "ised": 7937,
      "605": 7938,
      "ĠGiver": 7939,
      "backwardValue": 7940,
      "outln": 7941,
      "fromAxisAngle": 7942,
      "CheckAdmin": 7943,
      "Ġruntime": 7944,
      "ATH": 7945,
      "Reduction": 7946,
      "camrecoil": 7947,
      "loader": 7948,
      "---------------------------": 7949,
      "Configurations": 7950,
      "updateIconSize": 7951,
      "Ġpressed": 7952,
      "AllPlayerData": 7953,
      "Ġadjust": 7954,
      "Ġvexternal": 7955,
      "StepAmount": 7956,
      "URATION": 7957,
      "FreeSCP": 7958,
      "ĠheightScale": 7959,
      "ĠButtonR": 7960,
      "ĠServerScriptService": 7961,
      "180354": 7962,
      "ĠLeftHip": 7963,
      "settingName": 7964,
      "TopbarPlus": 7965,
      "Variable": 7966,
      "Ġrecord": 7967,
      "ĠRotriever": 7968,
      "Ġproperly": 7969,
      "hingeconnections": 7970,
      "ĠMay": 7971,
      "Ġapplying": 7972,
      "ĠHPCache": 7973,
      ")))*-": 7974,
      "Ġignor": 7975,
      "GROU": 7976,
      "Ġctkn": 7977,
      "668": 7978,
      "977": 7979,
      "Belt": 7980,
      "LV": 7981,
      "Link": 7982,
      "Pool": 7983,
      "bad": 7984,
      "iate": 7985,
      "ively": 7986,
      "ov": 7987,
      "osed": 7988,
      "sn": 7989,
      "Ġqueue": 7990,
      "alog": 7991,
      "real": 7992,
      "ifter": 7993,
      "Ġflags": 7994,
      "riends": 7995,
      "Ġsend": 7996,
      "iment": 7997,
      "Static": 7998,
      "Ġbetter": 7999,
      "ĠSH": 8000,
      "ather": 8001,
      "Ġstraight": 8002,
      "ĠActive": 8003,
      "ServiceSpecific": 8004,
      "ĠPut": 8005,
      "Ġ24": 8006,
      "ĠFocus": 8007,
      "IsRoblox": 8008,
      "verb": 8009,
      "open": 8010,
      "CameraY": 8011,
      "CameraMin": 8012,
      "ĠUSE": 8013,
      "ortion": 8014,
      "ĠDescendant": 8015,
      "scan": 8016,
      "INT": 8017,
      "ĠClientData": 8018,
      "7871": 8019,
      "Ġchecking": 8020,
      "Ġenc": 8021,
      "ĠEDIT": 8022,
      "itions": 8023,
      "Ġspan": 8024,
      "337": 8025,
      "DataStoreService": 8026,
      "RankName": 8027,
      "PathfindingService": 8028,
      "ĠPromises": 8029,
      "ĠuserInputService": 8030,
      "lectionService": 8031,
      "tools": 8032,
      "tweenService": 8033,
      "numbers": 8034,
      "tipLabel": 8035,
      "Normalize": 8036,
      "ContextActions": 8037,
      "PTION": 8038,
      "Ġlibrary": 8039,
      "9114": 8040,
      "ĠAtt": 8041,
      "ScrollingFrame": 8042,
      "ĠAnimationTrack": 8043,
      "ĠsubjectPosition": 8044,
      "origin": 8045,
      "ĠfadeIn": 8046,
      "ĠboundKeysObj": 8047,
      "Ġvisibility": 8048,
      "structors": 8049,
      "vectorToWorldSpace": 8050,
      "Sparkles": 8051,
      "Ġrepresent": 8052,
      "Ġattribute": 8053,
      "exists": 8054,
      "308488727": 8055,
      "615963876": 8056,
      "724860668": 8057,
      "Quality": 8058,
      "rotateInput": 8059,
      "ederalSignal": 8060,
      "IsRobloxFunction": 8061,
      "CameraMinZoomDistance": 8062,
      "475": 8063,
      "521": 8064,
      ":\",": 8065,
      "?):": 8066,
      "BO": 8067,
      "Burst": 8068,
      "Coins": 8069,
      "Div": 8070,
      "Dash": 8071,
      "Finger": 8072,
      "Green": 8073,
      "Non": 8074,
      "Please": 8075,
      "RP": 8076,
      "Saturation": 8077,
      "]\")": 8078,
      "bby": 8079,
      "horn": 8080,
      "rab": 8081,
      "saude": 8082,
      "window": 8083,
      "Ġ65": 8084,
      "Ġtuning": 8085,
      "session": 8086,
      "Ġmotor": 8087,
      "vec": 8088,
      "Ġinternal": 8089,
      "pture": 8090,
      "Moderator": 8091,
      "Replicated": 8092,
      "erved": 8093,
      "ĠSKP": 8094,
      "Any": 8095,
      "Ġhack": 8096,
      "GetAsync": 8097,
      "ĠRed": 8098,
      "ToIcon": 8099,
      "ems": 8100,
      "------------------------------------": 8101,
      "ĠAss": 8102,
      "Ġnothing": 8103,
      "upper": 8104,
      "Services": 8105,
      "Season": 8106,
      "ĠFilter": 8107,
      "ĠFADE": 8108,
      "ĠDiff": 8109,
      "connected": 8110,
      "ĠgameProcessed": 8111,
      "ĠnewPath": 8112,
      "ĠNAME": 8113,
      "107": 8114,
      "UpdateData": 8115,
      "170": 8116,
      "anging": 8117,
      "lastTransparency": 8118,
      "ĠhumanoidIsDead": 8119,
      "ĠDefine": 8120,
      "Ġ[[": 8121,
      "currentSubjectDistance": 8122,
      "196": 8123,
      "197": 8124,
      "ĠgetHeightScale": 8125,
      "Price": 8126,
      "706": 8127,
      "ToggleOn": 8128,
      "ToggleToIcon": 8129,
      "charspeed": 8130,
      "STR": 8131,
      "ĠAdornee": 8132,
      "uding": 8133,
      "dropdownOpen": 8134,
      "ĠHandleState": 8135,
      "OLOR": 8136,
      "Groups": 8137,
      "Ġcreating": 8138,
      "DOWN": 8139,
      "doTween": 8140,
      "Ġinitialize": 8141,
      "gingFinger": 8142,
      "Ġextends": 8143,
      "ĠtqABS": 8144,
      "ĠDisable": 8145,
      "Skill": 8146,
      "sizeHalf": 8147,
      "ridge": 8148,
      "MouseLockAv": 8149,
      "17437": 8150,
      "Siren": 8151,
      "Ġvery": 8152,
      "ĠBOVact": 8153,
      "Ġexplosive": 8154,
      "VICE": 8155,
      "Ġdestroyed": 8156,
      "22972": 8157,
      "Ġradix": 8158,
      "afeMode": 8159,
      "utorial": 8160,
      "limbclone": 8161,
      "Ġmiddleware": 8162,
      "ĠStances": 8163,
      "draggingFinger": 8164,
      "CONTENT": 8165,
      "ĠsliceRect": 8166,
      "ETHO": 8167,
      "'].": 8168,
      ")~=": 8169,
      "267": 8170,
      "226": 8171,
      "399": 8172,
      "799": 8173,
      "BlowupTemp": 8174,
      "Dia": 8175,
      "Gener": 8176,
      "Now": 8177,
      "PER": 8178,
      "Pivot": 8179,
      "Ring": 8180,
      "]},": 8181,
      "center": 8182,
      "dPos": 8183,
      "land": 8184,
      "sFrame": 8185,
      "ĉĊĉĉĉĉĉ": 8186,
      "ĠUpdated": 8187,
      "Ġcell": 8188,
      "ensed": 8189,
      "Ġtitle": 8190,
      "ifi": 8191,
      "uel": 8192,
      "umes": 8193,
      "Ġslower": 8194,
      "veled": 8195,
      "Respawn": 8196,
      "Ġbatch": 8197,
      "ĠSS": 8198,
      "Ġrece": 8199,
      "ulator": 8200,
      "Deep": 8201,
      "Ġgre": 8202,
      "Ġdecal": 8203,
      "Ġdetail": 8204,
      "Ġ**": 8205,
      "ĠPRE": 8206,
      "ĠDPad": 8207,
      "mass": 8208,
      "Ġconsole": 8209,
      "Ġmobile": 8210,
      "ĉĉĉĊĉĉĉ": 8211,
      "Ġshown": 8212,
      "RunCommand": 8213,
      "882": 8214,
      "LoadData": 8215,
      "Ġ..=": 8216,
      "MainPart": 8217,
      "282": 8218,
      "Ġunit": 8219,
      "ĠContainer": 8220,
      "animate": 8221,
      "BulletSpeed": 8222,
      "hitbox": 8223,
      "AdminNotes": 8224,
      "ĠAdjust": 8225,
      "PathWaypoint": 8226,
      "ENSE": 8227,
      "MotorMaxTorque": 8228,
      "UpperAngle": 8229,
      "TopBar": 8230,
      "ĠBasePart": 8231,
      "Camber": 8232,
      "KeyframeReached": 8233,
      "ĠTextSize": 8234,
      "SpecialMesh": 8235,
      "ĠrankName": 8236,
      "MarketplaceService": 8237,
      "ĠRightHip": 8238,
      "FanSpeed": 8239,
      "Ġcontent": 8240,
      "Subcategory": 8241,
      "awned": 8242,
      "ERSON": 8243,
      "transparencyDirty": 8244,
      "MarkerEvent": 8245,
      "MetaData": 8246,
      "Ġlicense": 8247,
      "Ġeasy": 8248,
      "BillboardGui": 8249,
      "NOTE": 8250,
      "ĠCommands": 8251,
      "rsoLV": 8252,
      "Ġ{...}": 8253,
      "3420200": 8254,
      "PendingReturns": 8255,
      "Blown": 8256,
      ")<": 8257,
      "325": 8258,
      "594": 8259,
      "900": 8260,
      "Gra": 8261,
      "Gravity": 8262,
      "It": 8263,
      "Lift": 8264,
      "Put": 8265,
      "POR": 8266,
      "Symbol": 8267,
      "TQ": 8268,
      "Vol": 8269,
      "lator": 8270,
      "master": 8271,
      "Ã§": 8272,
      "Ð¿": 8273,
      "Ġ64": 8274,
      "ery": 8275,
      "Ġtriggers": 8276,
      "Ġthose": 8277,
      "edList": 8278,
      "Ġcop": 8279,
      "Ġpower": 8280,
      "Ġpants": 8281,
      "Ġpanel": 8282,
      "Ġsrc": 8283,
      "Inventory": 8284,
      "Ġinsert": 8285,
      "Ġbias": 8286,
      "Ġocclusion": 8287,
      "Ġgreen": 8288,
      "hes": 8289,
      "setState": 8290,
      "))*(": 8291,
      "Ġdoc": 8292,
      "),_": 8293,
      "InputBox": 8294,
      "ĠPLAYER": 8295,
      "ĠWatch": 8296,
      "ĠDrop": 8297,
      "Once": 8298,
      "159": 8299,
      "keyFrameReachedFunc": 8300,
      "TextXAlignment": 8301,
      "SetIsJumping": 8302,
      "Archivable": 8303,
      "Traveled": 8304,
      "202": 8305,
      "105": 8306,
      "109": 8307,
      "TimeBans": 8308,
      "Ġshirt": 8309,
      "wards": 8310,
      "141": 8311,
      "ONE": 8312,
      "905": 8313,
      "EndImage": 8314,
      "ĠrunKeyDown": 8315,
      "ChatService": 8316,
      "ARR": 8317,
      "ĠÐ½": 8318,
      "ĠAlignment": 8319,
      "Ġarrays": 8320,
      "AllSeason": 8321,
      "textBox": 8322,
      "DistTraveled": 8323,
      "Ġminimum": 8324,
      "ITH": 8325,
      "Ġmatches": 8326,
      "Units": 8327,
      "Cooling": 8328,
      "Ġmanually": 8329,
      "Ġdetermined": 8330,
      "Ġnormalized": 8331,
      "OMM": 8332,
      "ĠServices": 8333,
      "ĠdeadZone": 8334,
      "Requested": 8335,
      "ĠCacheTorque": 8336,
      "Ġoperation": 8337,
      "accuracy": 8338,
      "ĠClone": 8339,
      "USTOM": 8340,
      "invalid": 8341,
      "Impact": 8342,
      "LayerCollector": 8343,
      "fficiency": 8344,
      "642787576": 8345,
      ")(": 8346,
      "965": 8347,
      "ETrans": 8348,
      "Efficiency": 8349,
      "GTable": 8350,
      "Hue": 8351,
      "Hold": 8352,
      "MW": 8353,
      "NE": 8354,
      "NIL": 8355,
      "Pick": 8356,
      "SHE": 8357,
      "]))": 8358,
      "bir": 8359,
      "hind": 8360,
      "jest": 8361,
      "px": 8362,
      "sSwimming": 8363,
      "tkn": 8364,
      "whit": 8365,
      "ĊĊĉĉĉĉĉĉ": 8366,
      "Ġ~": 8367,
      "alf": 8368,
      "Ġty": 8369,
      "ords": 8370,
      "ories": 8371,
      "steer": 8372,
      "amed": 8373,
      "iliates": 8374,
      "Ġflip": 8375,
      "Ġcross": 8376,
      "uture": 8377,
      "Ġsender": 8378,
      "Ġscheduler": 8379,
      "Ġ110": 8380,
      "Ġaff": 8381,
      "Ġhighest": 8382,
      "ĠLIC": 8383,
      "setup": 8384,
      "ToAnim": 8385,
      "ĠWITH": 8386,
      "Shifting": 8387,
      "Ġ27": 8388,
      "Steam": 8389,
      "ĠInc": 8390,
      "ĠInt": 8391,
      "OnTouchEnded": 8392,
      "vert": 8393,
      "Ġonto": 8394,
      "156": 8395,
      "ĊĊĉĊĊ": 8396,
      "ĠMIT": 8397,
      "MouseEnter": 8398,
      "GearShift": 8399,
      "ivid": 8400,
      "Ġarm": 8401,
      "--------------------------------------------------------------------------------": 8402,
      "');": 8403,
      "Ġwhenever": 8404,
      "ually": 8405,
      "146": 8406,
      "148": 8407,
      "8865": 8408,
      "LoadCode": 8409,
      "8464": 8410,
      "644": 8411,
      "193": 8412,
      "facebook": 8413,
      "Ġleast": 8414,
      "TCSAmt": 8415,
      "ĠGetPlayer": 8416,
      "camShake": 8417,
      "ScaleMultiplier": 8418,
      "Ġstarted": 8419,
      "348": 8420,
      "Ġsoon": 8421,
      "DebrisProjectile": 8422,
      "AllAnimations": 8423,
      "guiService": 8424,
      "Ġminutes": 8425,
      "SegContainer": 8426,
      "ĠmyTorso": 8427,
      "ProfileStore": 8428,
      "ĠLegacy": 8429,
      "Ġextension": 8430,
      "Ð¾Ð²": 8431,
      "Banned": 8432,
      "Ġavg": 8433,
      "ClearAll": 8434,
      "Cleaning": 8435,
      "Ġinvalid": 8436,
      "29691": 8437,
      "Nodes": 8438,
      "EEEE": 8439,
      "654529691": 8440,
      "ĠFacebook": 8441,
      "________________________________": 8442,
      "Obstacle": 8443,
      "Ġlicensed": 8444,
      "92835": 8445,
      "options": 8446,
      "ĠlgImgOffset": 8447,
      "Ġdetected": 8448,
      "Wandering": 8449,
      "interface": 8450,
      "birth": 8451,
      "Ġaffiliates": 8452,
      "ĠLICENSE": 8453,
      "\"\";": 8454,
      "010": 8455,
      "CB": 8456,
      "Cap": 8457,
      "CLI": 8458,
      "EH": 8459,
      "Fast": 8460,
      "Faded": 8461,
      "Pe": 8462,
      "Prot": 8463,
      "Pump": 8464,
      "Pause": 8465,
      "SK": 8466,
      "Sust": 8467,
      "SFX": 8468,
      "VT": 8469,
      "_),": 8470,
      "asp": 8471,
      "don": 8472,
      "gIndex": 8473,
      "napping": 8474,
      "rone": 8475,
      "sign": 8476,
      "tTwo": 8477,
      "uh": 8478,
      "void": 8479,
      "Ġĉĉĉĉ": 8480,
      "Ġance": 8481,
      "Ġqu": 8482,
      "Ġ):": 8483,
      "ĠModules": 8484,
      "enemy": 8485,
      "reload": 8486,
      "ittle": 8487,
      "Ġfuture": 8488,
      "Ġpow": 8489,
      "urb": 8490,
      "Ġskip": 8491,
      "chine": 8492,
      "ĉĉĉĉĊĉĉĉ": 8493,
      "InRegion": 8494,
      "Stall": 8495,
      "ĠCor": 8496,
      "Ġ17": 8497,
      "Ġ180": 8498,
      "Recursive": 8499,
      "Ġaxle": 8500,
      "ĠTS": 8501,
      "ĠScale": 8502,
      "ĠSaved": 8503,
      "Ġreloading": 8504,
      "ĠLead": 8505,
      "GetLift": 8506,
      "ĠRET": 8507,
      "activate": 8508,
      "ĠAD": 8509,
      "uplic": 8510,
      "mochi": 8511,
      "ĠPrev": 8512,
      "ĠPlace": 8513,
      "ĠWeakMap": 8514,
      "ĠBolting": 8515,
      "153": 8516,
      "CameraX": 8517,
      "RightFoot": 8518,
      "ĠOrientation": 8519,
      "Adds": 8520,
      "ĠNext": 8521,
      "enger": 8522,
      "-------------------------------------------------------------------": 8523,
      "Ġexport": 8524,
      "ĠDelay": 8525,
      "egin": 8526,
      "ĠHitEffectData": 8527,
      "aging": 8528,
      "Ġ4000": 8529,
      "printing": 8530,
      "RootJoint": 8531,
      "651565": 8532,
      "708": 8533,
      "ĠLog": 8534,
      "BackgroundIn": 8535,
      "DiffPerc": 8536,
      "DescendantAdded": 8537,
      "961": 8538,
      "PathStatus": 8539,
      "ĠRemoteEvents": 8540,
      "blue": 8541,
      "ĠAdded": 8542,
      "Removes": 8543,
      "Ġgoing": 8544,
      "ĠhandleMove": 8545,
      "NoOutlines": 8546,
      "ĠJest": 8547,
      "Ð°Ð½": 8548,
      "Weapons": 8549,
      "Ġscope": 8550,
      "7210": 8551,
      "ĊĠĠĠĠĠĠĠĠĠĠĠĠĠĠĠĠĠĠĠĠĠĠĠĠĠĠĠ": 8552,
      "ĠsettingDetail": 8553,
      "Ġhandlers": 8554,
      "17364797": 8555,
      "-----------------=[": 8556,
      "SmoothNoOutlines": 8557,
      "VRRotation": 8558,
      "settingDetail": 8559,
      "AMER": 8560,
      "ĠHandling": 8561,
      "PartToModify": 8562,
      "ĠstopAllAnimations": 8563,
      "174881": 8564,
      "ĠReplica": 8565,
      "ĠflagObject": 8566,
      "ĠListen": 8567,
      "FocusReleasedConn": 8568,
      "ĠAssets": 8569,
      "ĠJeffTheKillerScript": 8570,
      "AlphaStart": 8571,
      "âĸ¬âĸ¬âĸ¬âĸ¬âĸ¬âĸ¬âĸ¬âĸ¬": 8572,
      "699174881": 8573,
      "Airhorn": 8574,
      "48467": 8575,
      "alerttext": 8576,
      "FullName": 8577,
      "ĠSurfaceCF": 8578,
      "FadedBackgroundIn": 8579,
      "ĠLeader": 8580,
      ")--]]": 8581,
      "225": 8582,
      "537": 8583,
      ":\"": 8584,
      "<--": 8585,
      ">(": 8586,
      "Bipod": 8587,
      "Glue": 8588,
      "Psi": 8589,
      "Qui": 8590,
      "Supp": 8591,
      "first": 8592,
      "ipe": 8593,
      "lv": 8594,
      "patch": 8595,
      "rand": 8596,
      "sure": 8597,
      "ĊĊĉĉĉĉĉĉĉ": 8598,
      "onamed": 8599,
      "reloading": 8600,
      "Ġclasses": 8601,
      "desc": 8602,
      "isSelected": 8603,
      "Ġphy": 8604,
      "urt": 8605,
      "Ġ\"-": 8606,
      "Ġmet": 8607,
      "ĠCO": 8608,
      "\")))": 8609,
      "Moun": 8610,
      "Mock": 8611,
      "Ġbu": 8612,
      "Ġtoken": 8613,
      "osh": 8614,
      "GetState": 8615,
      "example": 8616,
      "asically": 8617,
      "Ġstack": 8618,
      "Ġfunctional": 8619,
      "wear": 8620,
      "Ġdeath": 8621,
      "ĠPLUGIN": 8622,
      "ĠHERE": 8623,
      "ĠBox": 8624,
      "OnPlayer": 8625,
      "OnSpawn": 8626,
      "152": 8627,
      "SoundService": 8628,
      "CameraAngle": 8629,
      "ButtonDown": 8630,
      "25881": 8631,
      "Ġconstraint": 8632,
      "Ġlittle": 8633,
      "Ġmoving": 8634,
      "171": 8635,
      "ĠDead": 8636,
      "887": 8637,
      "Tracks": 8638,
      "Ġ..\"": 8639,
      "Ġneg": 8640,
      "MakeClient": 8641,
      "Attachments": 8642,
      "Locks": 8643,
      "ĠTools": 8644,
      "Lax": 8645,
      "Ġruns": 8646,
      "Ġ600": 8647,
      "CommandName": 8648,
      "326": 8649,
      "ĠStick": 8650,
      "gnC": 8651,
      "binded": 8652,
      "RearDoor": 8653,
      "Ġmatching": 8654,
      "CamCF": 8655,
      "raph": 8656,
      "------------------------------------------------------------------------------------------------------------------------": 8657,
      "Ġautonamed": 8658,
      "MeshPart": 8659,
      "ContextActionResult": 8660,
      "ProfileAsync": 8661,
      "Ġcomput": 8662,
      "Library": 8663,
      "Ġinitialization": 8664,
      "Ġinitializing": 8665,
      "Ġclon": 8666,
      "xygen": 8667,
      "SceneFramework": 8668,
      "createElement": 8669,
      "Closest": 8670,
      "Cleanup": 8671,
      "makehingeconnections": 8672,
      "ĠCONFIG": 8673,
      "erialize": 8674,
      "Ġvisual": 8675,
      "Hovering": 8676,
      "ĠSupercharger": 8677,
      "Occupants": 8678,
      "oooooooo": 8679,
      "Ġhandling": 8680,
      "Ġcommon": 8681,
      "raitMode": 8682,
      "BoolValue": 8683,
      "TextStrokeColor": 8684,
      "ĠrecursiveGetLift": 8685,
      "ĠTwin": 8686,
      "Purge": 8687,
      "avaScript": 8688,
      "SHEET": 8689,
      "92835355": 8690,
      "Quick": 8691,
      "022": 8692,
      "823": 8693,
      "Abo": 8694,
      "Average": 8695,
      "Dri": 8696,
      "Kit": 8697,
      "Muted": 8698,
      "OK": 8699,
      "QCB": 8700,
      "Saude": 8701,
      "Try": 8702,
      "URE": 8703,
      "Virar": 8704,
      "Zones": 8705,
      "friction": 8706,
      "hold": 8707,
      "ience": 8708,
      "kin": 8709,
      "lated": 8710,
      "success": 8711,
      "trigger": 8712,
      "¸°": 8713,
      "ê¸°": 8714,
      "ĠExplosion": 8715,
      "alias": 8716,
      "endStr": 8717,
      "--------|": 8718,
      "eds": 8719,
      "Ġfocus": 8720,
      "Ġcy": 8721,
      "Choice": 8722,
      "Ġsquad": 8723,
      "Inspect": 8724,
      "Inaccuracy": 8725,
      "Ġ\"/": 8726,
      "ĠntqPlot": 8727,
      "idk": 8728,
      "Ġ-(": 8729,
      "Ġreload": 8730,
      "Ġrets": 8731,
      "009": 8732,
      "Ġ--[": 8733,
      "Ġstandard": 8734,
      "-----------------------------------": 8735,
      "ĠApp": 8736,
      "duction": 8737,
      "ĠPitch": 8738,
      "ĠendStr": 8739,
      "ĠFederalSignal": 8740,
      "waiting": 8741,
      "iply": 8742,
      "ĠOb": 8743,
      "MouseLocked": 8744,
      "template": 8745,
      "FireMode": 8746,
      "MagIn": 8747,
      "102": 8748,
      "UpdateLaserTrail": 8749,
      "TimeLength": 8750,
      "ĠVis": 8751,
      "--------------------------------------------------------------------------------------": 8752,
      "ĠkeyPos": 8753,
      "ĠkeyFrameReachedFunc": 8754,
      "143": 8755,
      "luck": 8756,
      "289": 8757,
      "241": 8758,
      "244": 8759,
      "Complete": 8760,
      "INE": 8761,
      "ynchron": 8762,
      "BodyPart": 8763,
      "237": 8764,
      "Ġ|--------": 8765,
      "animSpeed": 8766,
      "forms": 8767,
      "936": 8768,
      "REQ": 8769,
      "PeakSharp": 8770,
      "CheckMatch": 8771,
      "Determine": 8772,
      "321": 8773,
      "Ġplrs": 8774,
      "ĠinstanceNames": 8775,
      "Ġcompat": 8776,
      "Ġ2021": 8777,
      "warp": 8778,
      "ĠstartPos": 8779,
      "Ġadding": 8780,
      "updateDropdown": 8781,
      "Ġloader": 8782,
      "Handlers": 8783,
      "ĠÐ´": 8784,
      "Ġemitter": 8785,
      "menuSize": 8786,
      "DecayProjectile": 8787,
      "overlay": 8788,
      "ScreenPoint": 8789,
      "IgnoreClipping": 8790,
      "Ġmessages": 8791,
      "modules": 8792,
      "Ġincluding": 8793,
      "ĠTextLabel": 8794,
      "ĠPartCache": 8795,
      "Ġmean": 8796,
      "Ġknife": 8797,
      "Ġcomponents": 8798,
      "CornerRadius": 8799,
      "ShootId": 8800,
      "Ġlooping": 8801,
      "Ġassoc": 8802,
      "PenetrationDepth": 8803,
      "prevState": 8804,
      "Ġsecondary": 8805,
      "Ġreduce": 8806,
      "ĠParentToPart": 8807,
      "rankName": 8808,
      "runAnimName": 8809,
      "Entered": 8810,
      "Ġcutscene": 8811,
      "Ġkeeps": 8812,
      "ExecuteScripts": 8813,
      "ĠSuperluck": 8814,
      "ĠUploaded": 8815,
      "MovingParts": 8816,
      "descendantAddedConn": 8817,
      "descendantRemovingConn": 8818,
      "BallSocket": 8819,
      "iterator": 8820,
      "Hotkey": 8821,
      "somePlayer": 8822,
      "structions": 8823,
      "Ġescape": 8824,
      "Assign": 8825,
      "sthrot": 8826,
      "Ġreceive": 8827,
      "ImpactFX": 8828,
[...]
